/**
  ******************************************************************************
  * @file    network_data_params.c
  * @author  AST Embedded Analytics Research Platform
  * @date    2025-03-23T00:20:44+0100
  * @brief   AI Tool Automatic Code Generator for Embedded NN computing
  ******************************************************************************
  * Copyright (c) 2025 STMicroelectronics.
  * All rights reserved.
  *
  * This software is licensed under terms that can be found in the LICENSE file
  * in the root directory of this software component.
  * If no LICENSE file comes with this software, it is provided AS-IS.
  ******************************************************************************
  */

#include "network_data_params.h"


/**  Activations Section  ****************************************************/
ai_handle g_network_activations_table[1 + 2] = {
  AI_HANDLE_PTR(AI_MAGIC_MARKER),
  AI_HANDLE_PTR(NULL),
  AI_HANDLE_PTR(AI_MAGIC_MARKER),
};




/**  Weights Section  ********************************************************/
AI_ALIGNED(32)
const ai_u64 s_network_weights_array_u64[1411] = {
  0xbd1e43babfb46a0dU, 0x3da9273dbe84e409U, 0xbfa1865f3f74e99aU, 0xbe8fb10c3f569709U,
  0x3f00857d3fc23310U, 0x3f565d843ea7e28dU, 0xc0012242bff21555U, 0xbfa45951c01aebd3U,
  0xbde40d7ebfdacab4U, 0xbf9379303f61d71dU, 0x3f4067b6bfafc7daU, 0x3f63b57ebe9ab34aU,
  0xbf1effaabf0da499U, 0xbfba2676403dcb0bU, 0x3ea6028840052dcaU, 0x3f3f82103f61c1d3U,
  0xbf9bc6663fadc34eU, 0x3fa8ce123eb0d4d1U, 0x3f63576bbefbb7a5U, 0x3f997979bf061434U,
  0xc096c42740a48fefU, 0xbf8d2711c04656faU, 0x404fbf7bbf63d945U, 0x4059f0d14052ebcdU,
  0x3dbbe3223f31ef8eU, 0x3da2807cbf3e88ddU, 0xbf00a95f3ea84ffbU, 0xbf536dd93f7cae83U,
  0xbff6d94e3ee73c8aU, 0x3fcf56b9bfb10abaU, 0xbf59e6e3bfaaeb63U, 0xbe4f9b063f7dd54cU,
  0x3fd4fb62bed858d7U, 0x4009a1123ed7c202U, 0xbd8dc9d13fe1788bU, 0xbda6dc983f7a01dcU,
  0x3fa4100240003407U, 0xbe2341ea40046798U, 0x3f751e073da8049eU, 0xbe9cfa563f282f84U,
  0x3fbb1d6fbec50ceeU, 0xbdf3e094403bb00bU, 0xbf15c10ec01374c6U, 0xc0086212bffd253bU,
  0xbf77d145bf7fd751U, 0x3d97ff22bfae04c9U, 0xbe1c68a340055d53U, 0xbf2bf37b3ed78c11U,
  0x3dc0161cbceadb62U, 0x405c4f5ebf1b680bU, 0xbe629a423fe349f3U, 0xbfb17441bf978c74U,
  0x3fae6d543eee3876U, 0xbfc9b531bf9440b1U, 0xbf3fc1a33f8abe13U, 0x3fc309393e2bc650U,
  0xc046ea6d3ff9c2b8U, 0x402aa5173fd2fb67U, 0x3ec0db324017650aU, 0x3fed529d3fb185a9U,
  0x3e8c19063fbdc4baU, 0x4037032fbf266a4aU, 0x3ea7aff4bfdcc094U, 0xbf70254abd7295c2U,
  0x3f48185dbf8ef722U, 0xbf6d16563e85bd30U, 0xbf899debbe55e60aU, 0x3fd1d9923fcdafe4U,
  0x3f13d2873f8480a3U, 0x3f99da8dbf5210ccU, 0x3eb0ddf73e78cdf6U, 0x3fa73b0ebeb37f6aU,
  0x4099ee33c09122e7U, 0x40cbd93a40627512U, 0x40a8165f3f444149U, 0x40af7b5840a976e3U,
  0xbfd6557b3fd21153U, 0xbed25f97404ce456U, 0xbfad0695bfde16b3U, 0xbe8e811cbf4456d7U,
  0x3fd130f23f240b10U, 0x3e9740f03e90a148U, 0xbeef4cd4bf0c5005U, 0xc012c69bbf5a773fU,
  0xbf256bfa3fa06172U, 0xbf918281bf5834d7U, 0x3fb456a73f492749U, 0x3e61ed6d3fe8a6e5U,
  0xbf5544b73d55e19dU, 0x40160a9ac00396f0U, 0xbfa19afdbefdd67bU, 0x3f2801c63f2fec59U,
  0xbeefc33bbf167386U, 0xbeeda554beccaa37U, 0xbeb102d1bfac8e94U, 0x3f66be05bf3f5d57U,
  0xbf4c43ce3da23054U, 0xbe5d0c903e2fd460U, 0xbf3fc0b2bf2ee2c2U, 0xbf5519883f5dab3cU,
  0x3f5714633fbeeb12U, 0x403ad3784060fc4eU, 0x3f573869c00a8a26U, 0x3fab3f643ff2fb1bU,
  0x3f4fb7563f6eef29U, 0xbef4b138bfb4419dU, 0x3fcc7d3e3f63f08aU, 0x3f34ac3fbf00c15dU,
  0xbfc2f31d3fb5cc98U, 0xbcae0d533f999555U, 0x3fa0b2b5bf52000eU, 0xbf9461253ee2ad63U,
  0x408e26a3c08e3364U, 0x40e5b06540f83effU, 0x3f5da387bf826b64U, 0x3f3dfbca3f0b2faeU,
  0xc084a2fa40996ac5U, 0x3fa951313ed62be2U, 0x400c405bbfb327e0U, 0x3f64fae13f2cac12U,
  0x400c2d01c0153cbaU, 0xbfcae683bff94a18U, 0x3ff7b179403d4a5aU, 0x3f4562ac3f4fb2c2U,
  0xc02a5267405232d3U, 0xc01cefc9c0844b04U, 0xbf1928613fa8968eU, 0x3feaf4923fb75ec1U,
  0xbeb740703ffe66e4U, 0xc042cd72bfbd31bbU, 0x3f665339beab5e27U, 0x3f323778bf2d869dU,
  0xbf460ef1be986ba5U, 0xbd1aa5723db074daU, 0x3f3ae15b3f6a6d1dU, 0xbee4932c3fbaa792U,
  0xc00aceb63fb3001dU, 0x402f3e4540653531U, 0xbeaa0796c007d952U, 0xbe8241e83f557a5dU,
  0x3f5e8978bf0a70a9U, 0xbfab0fc9bf3f0cb4U, 0x3fc0d6783fdadf68U, 0xbec448f43f5e2c1bU,
  0x3fc5bf02bf81cddeU, 0xc044735a3f136513U, 0xbeab354a3e60433bU, 0xbef3ab4a3f8379f1U,
  0x40499f4ebfc824bcU, 0xc0891981c03e397eU, 0x4073bb153feb2522U, 0x404e4c38405a7f3cU,
  0x3e81ba873f4e6ceeU, 0x3f2a7d24bf9da05fU, 0x3f64b1b43f2ffe32U, 0xbfe56bbfbf15ca5fU,
  0x3e50779ebf7560a9U, 0x3e9795413fe0276dU, 0xbf9ac6774054e76cU, 0xbfc0751cbfc54b87U,
  0x40032a063e874f26U, 0xc0438f993ecea060U, 0xbfc79b393e87cadcU, 0xbe3201babe8a0643U,
  0x4019fe28bff32d78U, 0xbfa6a2d9bed69899U, 0xbf5f452240075a7aU, 0x3fc477053f6a3cc8U,
  0xbf55ffafbfaf01e2U, 0xbfe0f53bbf765dbaU, 0x3fa499623ebbc7a0U, 0xbf9da8d1be8fc9c5U,
  0xbf5c0cdb3fc0cb0bU, 0xbfe06b96bfb75eceU, 0xbeb9e086bfb3dc19U, 0x3e10ad103fdc4625U,
  0xbf5d837fbf348b26U, 0x3e5901afbd35e2c7U, 0x3f5175a0bd3c5b79U, 0x3ef01c20bf88ddb7U,
  0xc06543ae4092e1ffU, 0xbfd60e88c0931298U, 0x3f951312bfc96464U, 0x3f271b0b3f27deb6U,
  0x3da6bacb3f31d3f5U, 0xbf650aacbf179379U, 0x3f944387bf2a38bfU, 0x3e7fc0a0bf9682c5U,
  0xbf091f23bf3dab87U, 0xbd07014fbf38cb6cU, 0x3e9f59d83ec4ed8cU, 0x3f3d67d4bf87ba50U,
  0x3fad9a88c0028fe7U, 0x3f19a4453f0b0ed0U, 0x3fc86a3cc0100b6eU, 0xbee24273beee7be6U,
  0x3f814f033f5e6f03U, 0xbf2333213e7cbf7eU, 0x3dcd28bebc30dbc3U, 0x3edb3decbf9b5ff0U,
  0xbf6868dd4015156fU, 0x4010e408be97b415U, 0xbf98a321bfab9abbU, 0x3f9871b93f0a1dc6U,
  0xbf8e63e1bf87813dU, 0xbfc1dd62bff9f09dU, 0xbfa0b10c4028dbf6U, 0xbfee0c20c011728dU,
  0x3f91bec2bfc4f278U, 0x40de359d410d4ab8U, 0xbfde6a2bbdf20bf5U, 0xbfd419d4bfd92d43U,
  0x3f198ad7bffe35cbU, 0xc0553c3cc0995426U, 0x40937776bf5f99c2U, 0x40c87fc340c38a7aU,
  0x3ebd005dbc6510c4U, 0x3e204d823f6a4270U, 0xbed425763f53dab2U, 0xbf8c33043f1bf0dbU,
  0x3f5f9897be73ddc0U, 0x3e81af683f355a8bU, 0x3f831201bf8ac52bU, 0x3f8fe693befd1216U,
  0x3fb1d311bfa34bd6U, 0xc0805669c0a5c750U, 0xbb48481cbf06d88cU, 0x3f21359d3fafbf27U,
  0xc00f42aa4003baf3U, 0xc0a013abbf1eb339U, 0xc03ddbd23fb4dff5U, 0xc02f5af0c039bd42U,
  0x3f0ac0bfbe8935e3U, 0x4042e46cbf503f3cU, 0x400b62e44002b754U, 0x3fe4ad5f3fd802b5U,
  0x3f4d0b23bfa511a0U, 0x3f7fe7c43f419934U, 0x3ff2969cbfc1feedU, 0xbf10d44e3f5dabd5U,
  0x3f00da8a3e5df869U, 0x403daea7bf4b9c9fU, 0xbe10b9303fc61a20U, 0x3ffb21163fc90b86U,
  0x40028b61bfbb82c1U, 0x3fb18268407ceceaU, 0xbe65b43e3e645ab4U, 0x401ed03a40280999U,
  0xbf633bf4bf16169fU, 0x3f655156bea45761U, 0xbf571562bd22959fU, 0x3e38da853fbc3a35U,
  0x3ea6acbf3fb504f9U, 0xbea5fda53f653057U, 0x3f814e053fbbcdf3U, 0xbe3d612cbf9b180aU,
  0x3fabd9b23c831835U, 0xbf75bb3d3ff202cbU, 0xc00180cabf46ab61U, 0x3ec9d6cfbf588ecaU,
  0xc02863d6c05ea827U, 0x3e8be6623fd97fdfU, 0xbf76f5e4bfbfad2fU, 0xbfb3ca57c06e5433U,
  0xbfe02443bf2d2368U, 0x3f8571ecc12346a5U, 0xbfab4493bdcbce1fU, 0x3fdb3c49bf0a00cdU,
  0xc089393d3f0d747eU, 0x3dd37fe5bf709db8U, 0xbfbe3bebc0b14974U, 0xbe50cbe4bf7b54d8U,
  0xbf3c12283fad21d0U, 0xbf346968bfa5caddU, 0xc01e63723f1b7027U, 0xbe93580fbe568bedU,
  0xbfb76c5c3f03ea23U, 0x3ef3661940249eb0U, 0x3f919b1c3f97749dU, 0x3f8792e33f816a26U,
  0xbe1b88c43f9536eaU, 0x40561096bfef2ed2U, 0xbffc6d8fc068c237U, 0xbebe0ac0bf7d4b8dU,
  0x40a7e6ae401e2d8cU, 0xbeb294edc08ee6afU, 0xc08837d0c0850639U, 0xbf804cf7beff7d4dU,
  0x3d909a863e198443U, 0x3d8355c03d6d7d30U, 0x3de0f9923deb7dbaU, 0xbe0e1efc3cb0b255U,
  0xbdeb1899be8ddd64U, 0x3d8da1d9bd829254U, 0x3e33caeb3d937f24U, 0x3d374bd7bd4ca94cU,
  0xbe445bbb3d1e02dfU, 0xbe25120ebe9bb21bU, 0x3e709e2cbd042819U, 0xbe1f6dd53c9aab83U,
  0xbe427557bd91006dU, 0x3e6004d33e569e61U, 0x3e7e5295bec14c8eU, 0xbd329371be6b54a5U,
  0x3e1bda823e8147caU, 0x3b3439c43e094f9bU, 0x3df7a6533e0a7e11U, 0xbe9076823dfede98U,
  0xbd1d3f413d4f686bU, 0x3dc7a14b3e24b454U, 0xbd3877f8be5e31b9U, 0x3d2ad571bcd2969bU,
  0xbe0e6e9b3d8791e1U, 0x3d4bee663e03bd49U, 0xbbee0be3bd05592aU, 0xbe2beed03d5d5991U,
  0xbb82b762bb89ef29U, 0xbc8e82b8bd6930e2U, 0xbdf4cd53be31b44fU, 0xbd09497abe0b4e6fU,
  0xbe05bc3d3dd31e17U, 0x3e0ab64b3e599a4eU, 0xbdba1d903d61d76aU, 0x3e536c38bd7f19e9U,
  0x3e1609b4be6eb9f1U, 0xbe782bb33e71d93eU, 0xbe1ebde9be9f5522U, 0x3d5b8da73c970124U,
  0x3e520edfbd85d8b0U, 0xbd5d20bcbdbd5360U, 0x3d93a3b5bdf6c89eU, 0xbe0afdf6bdbbe19bU,
  0x3c142316bbca88fcU, 0x3e650be5be46bcd0U, 0x3e3e31fd3d4819bcU, 0xbe11db41be0b48e8U,
  0x3de9a1bf3e07e232U, 0xbd8b0bde3d4b6cddU, 0xbc47dbe5be1bfc84U, 0x3de3aa48be8b7b64U,
  0x3d909e6d3db0a2abU, 0x3bb5aa103e710a50U, 0xbde0dab8bd40d7eaU, 0x3dc1d45a3d94534aU,
  0x3ca6931bbe6c51daU, 0xbe299689bdc0483aU, 0x3a818bc63e1e414dU, 0xbd23f3b6bdb9a426U,
  0x3c3a7c36bc7c6fccU, 0xbe580d18bdf0934fU, 0x3e9a83a3bda0f1f2U, 0x3e276229be0bdb45U,
  0xbdccdbeebdb716f8U, 0xbd233dcf3d281c02U, 0xbdf25bf8be7599b6U, 0xbe7737eabd384618U,
  0xbc5dbaba3d29200cU, 0xbddc20ed3e05d5f4U, 0x3dc9cae53c32eab7U, 0xbe961a9dbdde5becU,
  0xbc2f95233e538960U, 0xbe6b6d7abe39c550U, 0x3dfc4738bc5eddd7U, 0xbc9cc735bcfa4b0dU,
  0x3d9ba026bd730216U, 0x3ddccddfbe03b474U, 0xbe2c81663deb760eU, 0xbdbd3c8b3e0d4088U,
  0xbceff9343df82d93U, 0xbcdddfd4be07dc9fU, 0x3e904d783e12cba3U, 0x3d583b40be29c373U,
  0xbda03ffabd86ae98U, 0x3e5bf50ebd44a0b1U, 0xbe2165be3e296cbfU, 0xbdec89fbbd7e36d0U,
  0x3e033069bd16f129U, 0x3e231786be14a58bU, 0x3e975cab3db5bba5U, 0x3c1e9942be4fda46U,
  0x3e8a10fb3e5f9f6eU, 0x3e17ed8cbe5fc6fcU, 0x3d8022f43ca5644aU, 0x3e1ce868be530824U,
  0x3d819dec3c840699U, 0xbdfcc8a73b0ebceeU, 0xbbf6c375bcb2fc6eU, 0x3dbb6e56bdbba17eU,
  0xbd748dc2bdbf4b07U, 0xbe3d074ebdaa29f6U, 0x3e1237683daa9569U, 0x3dd961a63d682b60U,
  0xbd1167563cb3b1cfU, 0x3d6015f83d2487b4U, 0xbdc8b5e93d268294U, 0x3e41f8f83e452186U,
  0xbc1107863cd28ae0U, 0xbdd084b63e040de5U, 0x3d43d75d3e3cfbaaU, 0xbd2488c03bf69204U,
  0xbe01c493bcfdfe83U, 0xbc16032b3bbb78cfU, 0xbdcfd508be41b2cbU, 0x3d658922be1c5f01U,
  0xbc36f6b43d8396f9U, 0xbdc85c9b3df9d8eaU, 0x3ad97fc23e0e787aU, 0x3d8308e83e1c5676U,
  0xbd8375ca3e351d69U, 0xbd63b3643df08787U, 0x3d8d1228bdb12eb9U, 0x3ddc72903cb1b98bU,
  0x3e121f6e3c7c452dU, 0x3d90426bbe0e3113U, 0xbb889afcbdd4832dU, 0xbdbeeae43dd2aaeaU,
  0xbe203ec9bdc2365eU, 0x3c8f388cbde0fb8dU, 0xbe10c4583d9397a8U, 0x3bfbc61d3d16e084U,
  0xbdd2d8c1bd8b5882U, 0x3cd2a0d6be1ac658U, 0xbe472d30bea6abfeU, 0xbe5c20c6be5af105U,
  0xbc9b4e19bd354a05U, 0xbc878133be9f792fU, 0xbe0163d43c1511b2U, 0xbbb037f7be239e09U,
  0xbe05a88e3e27e73cU, 0xbd1a7fd5bc67ac39U, 0xbe8ebacaba09ab82U, 0x3ccf11bebd91139eU,
  0xbdbed0403deaa3e3U, 0xbd6659ef3ddb4454U, 0x3d94fc7bbe05068bU, 0x3e3289b53c8f723eU,
  0x3e6f1a083dea8871U, 0xbd8a2934bd20b08bU, 0x3c8992c83e44357bU, 0xbda9d77bbce6f76eU,
  0xbd0dd05f3e80afdfU, 0x3e506b09bda84394U, 0x3e694360be410a98U, 0x3e08ab7bbe6a2269U,
  0xbe9c4e703e9e2e07U, 0x3c24041fbe7fee8aU, 0xbec9daf7bdd66883U, 0xbd18e30c3e413647U,
  0xbe3925303ddc6104U, 0xbe69995a3deaa022U, 0xbcd6ff4e3e224257U, 0x3d83c9833d7afd95U,
  0xbde1173f3e30fa8aU, 0x3dabed483e7e2a6dU, 0xbd16bd9bbd7c784fU, 0xbddd4496be2d1addU,
  0x3dc2fe94bdc7e565U, 0x3e1d3d6ebe219e79U, 0xbe0ad981bdefbae6U, 0xbc8ec9c0be10a11dU,
  0x3e0b433e3e12cf36U, 0x3e49f21c3cbed56dU, 0xbe3608cc3e5b6885U, 0xbd1ad1853e116d5bU,
  0x3d48e010bd79f2a0U, 0xbdad94d13dc99833U, 0x3d0e6d683e3b9e11U, 0xbe272785bd0de594U,
  0xbe4d36983c48ac77U, 0x3b90e572be1d14bfU, 0xbe570708bdc6fce1U, 0xbd86ce47be1e8b4dU,
  0x3d77c2bbbd8774c3U, 0x3d8650d23c11716aU, 0x3cdf5420bd1a15e9U, 0xbe2d6bd1be0827d4U,
  0x3d2d9a703c53028bU, 0x3e02ffdbbe19ddf4U, 0x3d77588fbe00073cU, 0xbe0d4db13d32d487U,
  0xbe37fbedbe00ae7bU, 0xbcc9f27cbe41352aU, 0xbe52b8ee3e29a382U, 0x3e5485ebbd85217eU,
  0x3e2220e2bdfa9a28U, 0x3e1afea33defa8eaU, 0x3d8d47bdbe4941f8U, 0x3e5e992f3dd9dbadU,
  0xbe37214dbdcc46adU, 0xbdd8e98cbe90bd36U, 0xbd5813d53d3a1f6aU, 0x3e67949bbe99478bU,
  0xbec578ba3e147e8bU, 0xbe0da3e5bdbae3f5U, 0x3e0573c0be591f98U, 0x3e287d753d24d29eU,
  0xbbd5c1eb3e1d36b6U, 0x3d16c806bec32371U, 0x3e4805b13cf5d427U, 0x3deaae5b3a3ca56dU,
  0x3de272c63e81270aU, 0xbdcb2ec33e42b52eU, 0x3e55e1cdbd93fc0dU, 0xbcb9d8003e850010U,
  0x3d67b6393da47434U, 0x3dba847a3dda1e0eU, 0xbdcc6558bd93ef24U, 0xbdecc09e3e5620b2U,
  0x3e43623b3cb81020U, 0xbe27e11ebe5a120eU, 0xbdeadca63d707d41U, 0xbe3db4eb3c0cf1c8U,
  0xbe671e613dd5769aU, 0x3ebf29223d0a1755U, 0x3d99e803bca4618eU, 0xbd4a27d2bdadc2abU,
  0xbdc2658ebd815731U, 0x3d800686bddc783eU, 0x3df7d8e73b8a19ceU, 0x3e0c1b7b3d8079d0U,
  0xbd6272ed3c3a23b8U, 0x3e6b26683df66046U, 0xbd8e37acbd53549eU, 0xbd9a593fbe280955U,
  0xbdc1e69b3d87e3b4U, 0x3e327428bd3af0cbU, 0xbe3255213ddffc3bU, 0xbdb63a95bd9f500fU,
  0x3d937d5f3e6a90b8U, 0x3e8e95893dd9229dU, 0xbc99709c3b3a1956U, 0x3e9b2d41bd80f89cU,
  0x3e130f68bde234edU, 0xbd2de10a3da3f128U, 0x3c42cf253e331ad6U, 0xbe02c19ebe58f99bU,
  0xbe4d607e3df957e0U, 0xbc9ffa98be5b9cdcU, 0xbc22d42d3d3159c3U, 0x3d30b827bb1f1073U,
  0xbe0dad41be3d1dd4U, 0xbde36e263dee2cedU, 0xbd1476bb3cacaab7U, 0xbe0e9a193e361b76U,
  0xbc4c5c15bd3c4379U, 0xbe756c2b3ddc841cU, 0xbe8fb0bfbe5ed3e0U, 0x3e29ae9d3e536420U,
  0x3c88f34b3cb254acU, 0x3e41a8dc3d9bd24eU, 0x3e3b50493ca63e2aU, 0xbe8345e0bd68f4d2U,
  0xbd1272b8bdf11db3U, 0xbd52be653e9f32dbU, 0x3dda19043e14343bU, 0x3e22a13d3dc6a392U,
  0xbcd9d881bd8f171eU, 0x3d9230db3e476ebdU, 0xbe1691f2bd98e663U, 0xbe10402d3da27d5aU,
  0xbcfcf963bddb504dU, 0x3d506c63be10a2e0U, 0xbde47f1f3c11e175U, 0x3e0d25c83d8cb805U,
  0x3e5fce9e3cc19f23U, 0x3d9355ac3e00243dU, 0xbe6bf2abbe0ba0efU, 0xbdbbdf753e04c36fU,
  0xbe465ebfbdcd90a5U, 0x3d8ee93dbe5d78bfU, 0x3eabfd3cbe5e5280U, 0x3dc0e61c3dfbaa62U,
  0xbe2fccdd3d8eb1e4U, 0xbe049d38be079f32U, 0x3dc0b9293dda95e4U, 0x3dfbe76fbccfb84eU,
  0xbcdb91dabc495092U, 0x3dd922d53dcf329fU, 0x3e6fff533dc5f4a9U, 0xbe107750bdf0bd18U,
  0x3d010b84be15e6dfU, 0x3d079144be4c8c04U, 0x3cffc4ef3d344bdbU, 0x3d75c94cbe81d9c0U,
  0x3d576bfebc427d84U, 0xbea313f8bea90f84U, 0x3e7203563db06b41U, 0x3d886d44bd6e6d0aU,
  0x3e4e4c4dbe1996b5U, 0xbd19b7763e1c8173U, 0xbd083086be91bb22U, 0x3ea604063e0ed92cU,
  0x3e241200bd9818a3U, 0x3e89887dbe404cc4U, 0xbc2ab2fd3e423bc1U, 0xbdb2eb67bd7cc131U,
  0x3e48efea3e2fe146U, 0x3e804a4bbcd5d079U, 0x3e91b3de3c236fd7U, 0x3e685a63be6f6886U,
  0xbe1a64e03d833507U, 0xbe3cb978be961d7aU, 0x3d6e68f9bf03243bU, 0x3e4e7eefbe666907U,
  0x3da0012fbbfda5edU, 0xbe359854be8c078cU, 0xbe99e3063a8d6045U, 0xbcd3a2523de3d7a3U,
  0x3e32d16a3dfa005dU, 0x3ddd1923be328a7eU, 0xbd77e581bc27f575U, 0x3e66e5603e35ffe7U,
  0xbe19d2a6bdb86a96U, 0x3e1efe5d3dc763fdU, 0xbe114b32bd0638faU, 0x3e1059b03d85c414U,
  0x3e153a7bbdd9a980U, 0xbd51d4843d812942U, 0xbc6c2dbdbd772a20U, 0x3b104dedbdaeb829U,
  0x3d642db33df05c0eU, 0x3da98fb13d864633U, 0xbdc71857be17906cU, 0xbd087cbbbe9c4d3fU,
  0xbe0e839cbd9a7faeU, 0x3d748d633e2a0419U, 0x3e2a3df8be0a4d3bU, 0xbdadd6163dd82ed5U,
  0x3d4713fbbe6d1edbU, 0x3e5fd13abde9cb24U, 0x3d01fc79bd4a4545U, 0xbe4cdf4ebe2ea502U,
  0x3c409f023dd2fc3eU, 0x3b2e50f93e47b9e7U, 0xbd97956cbdb470aaU, 0x3e05130a3e0bf135U,
  0xbe61c5e3bcf29bc1U, 0xbdfa5f61be5a0e84U, 0xbc9ec9e7bdce4c87U, 0xbe0e0ce5bd230674U,
  0xbe253963bdae77b3U, 0xbdb21b193d517092U, 0xbdb916b03e56e6d6U, 0x3e26b8f6be9d2121U,
  0x3e5c7fd53e2dcff0U, 0xbe65f03f3e7f4492U, 0xbe4f91fdbd930f30U, 0x3e481f0a3e5ca732U,
  0x3d31a7503df99605U, 0xbe2875383dee50aaU, 0xbe40b951be070dddU, 0x3dd25351be426160U,
  0x3dde91da3e53a0beU, 0xbdbbc608bd9ab848U, 0x3c04842b3eed67ffU, 0xbd8ec6c9bd36dc99U,
  0xbe28d9d13e631cbfU, 0x3d5dc547bd7dfdcaU, 0x3d66a552be04a6acU, 0xbd67e52a3dd1d776U,
  0xbe5128babdd97f0fU, 0x3dbb78183d68b159U, 0xbdb41f73be80046cU, 0x3dcb3901bdf455ebU,
  0x3e4f05d5bd18fb12U, 0xbe820580be34a736U, 0xbdcc1579bd89e70fU, 0x3d42cecb3e2e566aU,
  0xbe5ce7993cd63c1aU, 0xbe47fc82be258d43U, 0x3e3ad5fabd2a30a8U, 0xbd7d123f3c48d5c7U,
  0x3cb3c743bd0aedf6U, 0x3de2aa353e230a92U, 0x3d5eeae93dd00564U, 0x3d833f6a3dfb3174U,
  0x3dda39913cd5cb35U, 0xbe56bd11bd978a14U, 0x3e007b8cbc46d1fdU, 0xbe75d4cabe1b559bU,
  0xbe3948c73c538603U, 0x3e567adfbdbf44deU, 0xbd61f0563e35d50fU, 0xbd90eeed3c8bc5d5U,
  0xbd2876c8bdd949f4U, 0x3d8859de3dd664baU, 0xbd7b518f3e21d5b0U, 0x3d9eb12c3dace8bcU,
  0x3dd9afb63e510e88U, 0x3d83a99d3e01dc9aU, 0xbe32cc9b3e87b814U, 0xbd5b5c84bd72bc72U,
  0x3e68c3e13e02e3c3U, 0x3d87db6b3de7b801U, 0xbaaac19ebd0ef5cdU, 0x3d46a43f3db54ff3U,
  0x3d5a31cfbe3867e6U, 0xbd428ae3be21fc95U, 0xbcb605c63da4bf61U, 0xbdb0e1aa3e7a5a9fU,
  0x3e99cb663d2f517cU, 0x3e0471babd935cb4U, 0x3e7865f1bdf1e042U, 0x3d913bb6bdfa641aU,
  0xbda7976cbd75f2fcU, 0x3d2d9b0e3d8398f5U, 0xbddf246e3d8d210cU, 0x3d8ff21bbd908857U,
  0xbd86ccfebe019ef9U, 0x3dcb0dfe3ce912edU, 0x3e14abfbbd765123U, 0x3e76994f3ca00dacU,
  0xbe3dfb163e048b0bU, 0xbdd04d3d3e5c88abU, 0xbe320d893e365a74U, 0x3e40f96f3d82c4f5U,
  0x3bebcc023df82e97U, 0x3caf28e9bca97618U, 0x3d4b08ec3e60930aU, 0xbe095c98be8e18c5U,
  0x3d4c19e2be0f45b1U, 0xbe7acf483dcc4243U, 0xbe824f8fbe0cf0c4U, 0xbe4600fbb73ea615U,
  0x3c7d41ac3e3de151U, 0xbd03c3e1bdb0e0c9U, 0xbdcad4893e12353eU, 0x3dbc9406bcde44c6U,
  0x3c85df7c3e49abaeU, 0xbda012fa3e447fc7U, 0xbe62a2dd3e8d5a66U, 0x3de3f22b3e2ea42eU,
  0x3d7c328b3d94f5a0U, 0x3e3d933fbc1d81c1U, 0x3e72cc023d0659d7U, 0x3e488ac2bca0bb32U,
  0xbc925ae63e44e01dU, 0xbda2564abdbd85fbU, 0xbd82c5cbbe466d53U, 0x3dc94f0e3e1887c2U,
  0xbbf9b5e33e65f8e4U, 0x3e5f2b9e3a76d222U, 0x3c54efacbdbeeedaU, 0xbe19424e3e36e3c0U,
  0x3c9cb970bd3cb925U, 0xbdc9ec55bde6c214U, 0xbd0cca59bd8cb100U, 0xbbe7cf7dbcf3d4b3U,
  0xbe5cd831bbdf146dU, 0x3ddeebaa3e20161fU, 0xbe41f6f4bd70246dU, 0xbe1e846c3e23b065U,
  0xbd838ac43d9a11dcU, 0x3d92291dbc3d38c4U, 0xbc49ce6f3e132de9U, 0x3df682893e0701c0U,
  0x3e1a90c23d945801U, 0xbb45cff4be19378fU, 0xbdf988ca3d9a6d8cU, 0xbd15c1163dafe365U,
  0xbdc94014bdcd5ce6U, 0x3e19104ebdd33360U, 0x3e1a0ec5bdfbe3ecU, 0xbd6bc5dabd9e73a7U,
  0xbd92cc77bcdf3d2bU, 0x3d0faaa63c9d38a3U, 0x3d45f7ca3d754b69U, 0x3e3d8cedbe1363d4U,
  0xbdc030313d6dfff7U, 0x3dd913b93d820633U, 0x3df34bf6bdade619U, 0x3dc65014bdf50417U,
  0x3e7dca603d4cdb13U, 0xbddb69f1ba270cbeU, 0x3def4cfebe852531U, 0xbe1d4aab3e0d41bbU,
  0x3e74a2533dacb3b2U, 0x3e6116d63db5d575U, 0xbe1111353c55914aU, 0xbe3190f9bdf257bcU,
  0xbe304cd4bdfe6bcfU, 0xbe0350963cbb93f2U, 0x3c3ce8d6bdf4c4eeU, 0x3e2b9a48bd82ff7eU,
  0xbce048283dc83e6cU, 0xbd4c76ff3dbd192dU, 0xbc5d15013d369172U, 0x3e6cefd5be602278U,
  0xbe538226bc08cfb7U, 0x3e0c045bbd9586d0U, 0x3d8541423e5c5f54U, 0x3ca981173e694283U,
  0x3da9414ebe3d5ca3U, 0x3e6684ff3e268579U, 0x3e35c60abd8e5089U, 0xbd295afebe0e816bU,
  0x3cf2d5bd3e82eabaU, 0xbb8a8e8fbe24d184U, 0xbe2ba18fbe6d45eaU, 0x3e33938abe1167b4U,
  0xbda5be94bd63af65U, 0xbd6e586cbe881f8eU, 0x3e909e3b3da39eafU, 0x3e72627d3dd60c8bU,
  0x3cbf0715ba7dcc81U, 0xbe5c1434be31f537U, 0xbdfb678fbcf158d1U, 0x3ddaba593d8250f3U,
  0x3d4482433df12787U, 0x3e16d21ebe7162e7U, 0xbe29ac51be11bedcU, 0x3dd38278bc9446f5U,
  0xbdcbe4a73e58f637U, 0x3e7e8f9b3e5ad96dU, 0x3e3069bdbe5836d3U, 0x3ea9f14f3e3005acU,
  0xbcbf81f2bdb43ce9U, 0xbd97024bbe6cd100U, 0x3ab50d6b3e5d71dbU, 0xbdcda470bdcc7ba9U,
  0xbe896f3f3ddd5a26U, 0x3e3d033c3d50dc4dU, 0x3edbd6db3dfc62d3U, 0x3d348d663dee8deeU,
  0x3cd089f9bd65911bU, 0xbe35f4713e198e6bU, 0xbb2340f8be6de66dU, 0xbdf416d9bd1ad0f4U,
  0x3e17892fbb3d8e77U, 0xbcaac7d8bde3e9b3U, 0xbe8a88e83ddd8be6U, 0xbd3297e53b8f24d5U,
  0xbe003e943d324a07U, 0x3db76866bd23fcbeU, 0xbd4e458abe5148e3U, 0xbdfe7c79be514ceaU,
  0xbcc8e8ef3e4a213dU, 0xbd8d4a8dbe2ca9c8U, 0xbbb023a0bc22c2caU, 0xbe7ac0b9bdaf183dU,
  0xbe13e8be3cd1fd33U, 0xbe799337be6c2a81U, 0xbd61bb293de50f89U, 0xbe29b6cbbe745f40U,
  0xbe281e40bb2c59f9U, 0xbe455480bda891a9U, 0xbe2be45fbda5e7e6U, 0xbd343da93df2bc15U,
  0x3d68ce3e3e4a3080U, 0xbdc6b086bb98f654U, 0x3ec848fcbe2b91e9U, 0x3dae146bbdcfab33U,
  0x3e1e70023d84c12fU, 0xbe141bb7bc9fc044U, 0xbe02769a3badb61bU, 0xbcee3ad2bd118560U,
  0xbdef45ef3dd19620U, 0x3cb73c30bd1c8459U, 0x3e5ee3bbbe242435U, 0x3df16323bcf67d0eU,
  0xbdbb51303e8090c7U, 0x3d2671b83d9b4d74U, 0xbe347394be53c6e2U, 0xbd73551fbd927970U,
  0xbccd0786bd9e17b5U, 0xbe96a1d4bd9d0db5U, 0x3ddbcc2a3e063b5cU, 0x3e4a8ec2be05bf11U,
  0x3df565a2be71eec7U, 0xbd0fd52fbd6c7538U, 0x3e1ad9b1bdcfa283U, 0x3e2664b6be5c1d0bU,
  0x3e21f2a2bd652d2dU, 0xbe9c4103beced4a4U, 0x3e30ca6abe0dedb5U, 0x3d8d9afebe6a8bf6U,
  0xbe3c5a59bd07a24fU, 0xbde26f373e3505ccU, 0x3eb61739be66d5e6U, 0x3eb2295fbe387242U,
  0xbda98ee13e98bd66U, 0x395134ac3e3a530fU, 0xbe13c8f23d0665daU, 0xbdafeddcbe288d70U,
  0xbd008ff8be0857e1U, 0x3e96ed98bc865ba0U, 0xbc63ffefbe01a0a4U, 0xbdf2c9cbbe059bf0U,
  0xbdf5753ebe5a6104U, 0x3e54e894be05afadU, 0xbe33d62fbca49dc1U, 0xbe59738ebd08e4c5U,
  0x3ccdada6baa23da9U, 0x3d2618153e5784a8U, 0x3cfa725bbd156946U, 0xbd583932be0ca214U,
  0xbd1ea921be152b05U, 0xbe13b4aa3d85d5baU, 0x3e941686be5acd54U, 0xbdab941bbd1d8fe5U,
  0xbde3650ab8b563afU, 0x3e202687bce3491dU, 0xbde208d33db2ec37U, 0xbb77cf483e07f4e8U,
  0xbba18d903dbe661dU, 0x3d4f203dbea8a56cU, 0x3d867c883daf3446U, 0xbd9af9a0bdf49eecU,
  0x3e73e1293e585fc1U, 0xbe2bead4be4baef0U, 0x3e9897fcbeb1ddc1U, 0x3c1badde3e477e53U,
  0xbdaa431e3e531f4bU, 0xbdcef99d3dfd0cebU, 0xbdb47d62be80cb98U, 0xbe0893ae3e4d11d6U,
  0x3e37dd78be6bd6caU, 0x3d162652bc6073a5U, 0x3e03a3dabd1183a3U, 0x3df25be33c95e40fU,
  0x3d811cdfbdbb41dcU, 0x3cfd34d03d21cb5dU, 0xbe06d151bea4aa02U, 0x3ac880293da629e2U,
  0x3e311e343da37a4dU, 0xbdf80d613ab67aa7U, 0x3d7420253da9241fU, 0x3e59dee0be441370U,
  0xbd220216be53e8a5U, 0xbb1421d73de721e1U, 0xbdcfa482bd03f68fU, 0x3dc4a90ebe361e62U,
  0x3e82b2c53d1c2b48U, 0xbd85c133bbfe5314U, 0xbdd48be73da6d5c7U, 0xbe502bdabe471a0dU,
  0x3e36a0303e10ad63U, 0xbe05bd7b3e2e2678U, 0xbe07a6babdc42fe7U, 0x3ded42a5bd6ac1b9U,
  0xbd7a8a823dd240d0U, 0xbd93280abe527b92U, 0xbd74b5543eb55193U, 0xbe86320abe78f6bfU,
  0xbc2a394fbe1f5bbaU, 0x3b4bcce43ea0399eU, 0xbe777f373dc4b93aU, 0xbdf2d86cbc833c3eU,
  0x3d35dcc53df52affU, 0x3e4d8637bd2f6e1cU, 0xbd6f874fbcddd236U, 0x3da0f2e23d889548U,
  0xbe240de53dc41f0cU, 0x3c5ea7453dc74dc9U, 0x3dd2824b3eb7e58cU, 0x3e28eb37be430687U,
  0x3d006e78be46841eU, 0x3db243c93d28aac4U, 0xbd9c9b2fbe0a3138U, 0xbc8d75e5bd8f207dU,
  0x3db143763e093789U, 0x3c6770893db95a08U, 0xbe3c33213dd9c349U, 0x3e6b4e543d45da6eU,
  0xbe2417b1be04b5ceU, 0x3e4ffbe43e50e153U, 0xbdf408bc3e94416bU, 0x3d4cbb9e3e85d789U,
  0x3de060d6bd30bf86U, 0x3e9159c23e199b37U, 0xbcdc9a35bd3b4304U, 0xbe00483b3d070485U,
  0x3d32ae54bd2dc627U, 0x3d6de6f4bd53d32eU, 0xbdaae60ebbe627b5U, 0x3d844d833e350173U,
  0x3e7ff1393da387acU, 0xbe1afbf13de37decU, 0xbe90c0c7be463de2U, 0x3e0af3073e5cf4abU,
  0xbcdf9c6a3e1ec228U, 0xbda9230bbd2a950eU, 0xbe0961913e147206U, 0xbe4347ebbdfbada0U,
  0xbde0282dbda24b91U, 0xbe6952d2bdc607d8U, 0x3cbe47623e8f0675U, 0x3da0c19b3b45ee9bU,
  0xbe94f066be57e02fU, 0x3d7af45e3d801774U, 0x3eab85c43e84d50eU, 0xbda347db3cab4596U,
  0x3e0185c0be550815U, 0x3d90a582bd54ba0eU, 0x3d624d4bbc9d4d56U, 0x3e2fc52fbe422c93U,
  0x3e1b5831bc4c2f66U, 0x3ce8727b3e35584eU, 0xbd27b5623c88710dU, 0x3e4f08c53e9679ecU,
  0xbe066073bdc4e5adU, 0x3e8091b93e972788U, 0x3e0988cabd86b2f8U, 0xbccaf0ff3e98a450U,
  0x3e41e1b83d949f06U, 0xbd801e79be1472cdU, 0x3d4422953db84226U, 0xbdb8d6293dfaefe6U,
  0x3c4fc19cbd4f20e6U, 0x3da5422f3e45d3f3U, 0xbe9177adbe65d013U, 0x3e77cc543d6beeb3U,
  0xbc47cd333e4999e2U, 0xbe6cb1323e18df47U, 0xbe88614abb95a4e8U, 0xbdf98cefbc60efc0U,
  0xbe0676f83de9380cU, 0x3dfb16633e8aa0daU, 0xbe54a3fb3ed56852U, 0x3d6dafe33e21ade5U,
  0xbe679caebc234a91U, 0xbe31faa63d19e28dU, 0xbe3cb1583e90b352U, 0xbdbff26e3d8561d8U,
  0x3d91ef4fbdccd91fU, 0xbe9ea6eabd3374abU, 0x3e6e750abe88a352U, 0x3e60388d3ea40148U,
  0xbe2b339ebbf25ce0U, 0xbe0bc65d3d5edeb0U, 0x3e61f68cbd989764U, 0xbe3624b9be40c50fU,
  0xbe4f11b93cdca99aU, 0x3e21786dbe2cfcfeU, 0xbb2fc98c3e03ac84U, 0x3d9691823e45734fU,
  0xbe2202603df63531U, 0x3e430f133de6c8eeU, 0xbe2c868cbe0cd3b1U, 0x3dd124933d9ac020U,
  0x3e7c92613df16a0bU, 0xbd960598be80452bU, 0xbe7793e7bb979ecaU, 0xbe7be1d4bd8a839aU,
  0xbe405efabdc65bf7U, 0xbdabaea1bde046b5U, 0x3d94c78a3e2c7691U, 0xbe3d56d83e0fa8d3U,
  0x3dbb5b8abe7a7af9U, 0xbb9f8e613d9ff855U, 0x3e5504eebea830eeU, 0x3da20c773d3c9178U,
  0xbe1bd76e3e418575U, 0xbdc8ba6a3c102b73U, 0xbe1dbef5be3b2709U, 0x3e38ad1c3d4cb250U,
  0xbdbea6f33cb1ec9fU, 0x3de7d1d3bdc79691U, 0xbc57fd7fbc18eaaaU, 0xbcc909193db762c3U,
  0x3e26b74fbbafbba6U, 0x3e222e3d3d4585acU, 0xbd75bc323e12b616U, 0xbe46c4853dd20665U,
  0xbdc20a0bbe028631U, 0x3da0c241bdc9177bU, 0x3d6f805dbe4b3a05U, 0xbcd6c85dbddaed10U,
  0x3e02fb09bce7edbbU, 0x3e7bc0d53ca900e7U, 0x3cf515c33ecc5378U, 0xbce23ab5bd4dc822U,
  0xbde00085bd8f7f7dU, 0x3cebafbfbe03154fU, 0xbddbcf993d2be9f5U, 0x3e6f99b0be02aa6aU,
  0xbe00220a3e245893U, 0xbe53f6f0be15c3c7U, 0xbe60a530bc8c115cU, 0xbd2eb841be4334ceU,
  0x3e0fa200bd8f84bcU, 0x3e0c3d013da4571eU, 0xbe60b3783e6337f0U, 0x3e28d6ad3de1255bU,
  0x3e07adee3b9f7d19U, 0x3ddc92f0bd7cb8a2U, 0x3d49e744bdde6996U, 0x3e14264c3cc24388U,
  0xbd804f763dda4b85U, 0x3e4d052dbd570126U, 0xbdb05eb2be15fd41U, 0xbe42ecfbbd87fa93U,
  0x3d2a1c88bca97b06U, 0x3d91087ebdefd52eU, 0xbdb3aefa3e2fa7beU, 0xbcf027cfbdbf6b0bU,
  0x3da226babd2b3b32U, 0xbaefa4a23e5b3615U, 0xbdf6ee343d12862aU, 0x3d9b522b3d156e6aU,
  0xbd96ff7a3dfa2a31U, 0x3d8dfa593d1a0106U, 0xbe17d38bbdc36befU, 0x3e39f7693e10a808U,
  0x3e04356fbe1369f6U, 0xbc522de1be1c9ef5U, 0x3e74d040bdb46f28U, 0x3e6578933dba75cfU,
  0xbda49df8bd84de9cU, 0x3de639893e19b61cU, 0xbe05845d3ddd9332U, 0xbe0c63ef3df98d37U,
  0x3de01647be089386U, 0x3e1f50a63d4f650eU, 0xbdaa3b253df1e2e3U, 0x3d966b2e3c2dddd5U,
  0x3dcdcbdcbb4198f6U, 0xbd4ed4373dbdf0eaU, 0x3e5e374bbca94e2aU, 0xbce729df3e0627d9U,
  0x3d609bd03e0549dfU, 0xbc98d1e5bcc3a90fU, 0xbe273c5ebdfefd93U, 0x3e04faaebdfe89a7U,
  0xbda14826be44cd64U, 0xbe403878bd24a5baU, 0xbd9da586bd4f77ecU, 0x3c50ecf2be7d2721U,
  0x3c9a5da43d8ce730U, 0x3e593ee03c99464cU, 0xbe3d6524bd4d14bdU, 0xbc7cb080be170450U,
  0xbbc9b039bd5e79a4U, 0x3dc691673df4ad0aU, 0xbe19049d3c86b323U, 0xbe1ac00a3dd65083U,
  0xbdb87762be09bf59U, 0x3d8e499dbdca5f38U, 0xbe10e2d5bd9799b1U, 0x3c4cb6b73cc66a56U,
  0xbcda40dcbe0f635bU, 0xbdc6e4403dab20b3U, 0xbd66925f3d4bcb45U, 0xbc82d3853e3123c4U,
  0xbdc7e54f3e24f566U, 0x3dd15dea3dbabd27U, 0x3eb77146be2d545bU, 0x3c70912fbdab25c3U,
  0x3d39194f3e9d32f2U, 0x3dcac4bcbe8ec950U, 0x3e177802be839dfaU, 0xbd07828b3e1776f0U,
  0x3dedc6953cc306f0U, 0xbd4058083dbbdae3U, 0x3e1647073d78a023U, 0xbcf7759dbd105d85U,
  0xbce2668fbc14ac45U, 0x3d277f873e41fcd0U, 0x3d50707c3be54c0aU, 0x3c12157fbd52d848U,
  0x3d67b88dbdb48695U, 0xbd8aebfc3ddfa6f1U, 0xbd1bc4ca3e42f921U, 0xbd02ac8f3e411789U,
  0x3d88e888be00b9a2U, 0x3dedf065bd8b9afeU, 0x3ddc3fcd3d73db9dU, 0x3d7b9515bebf804aU,
  0xbb4cb2b3bdd67982U, 0xbd7c3d583d0ed434U, 0x3bd6f2983d136bd4U, 0xbe762a023d2ea7fbU,
  0xbe6d33763b75a262U, 0x3e793d73bb1ea294U, 0x3d97612e3deb9829U, 0x3d0f7a8b3d476cc6U,
  0x3cf694203e3a3a2eU, 0xbddb5d87bd2a0ab1U, 0xbc3b856dbda26d3fU, 0xbd9978533dfef0beU,
  0x3cf0316cbbfe1030U, 0x3d17dfd7be07a69cU, 0xbe3ba8573e2c287cU, 0xbdccc5de3da212e4U,
  0x3d05875b3e629db5U, 0x3df28c67be5bc3edU, 0x3c8a91f8bdba8384U, 0x3e33c92ebe51ea64U,
  0x3e1f40483e6a1532U, 0x3b46b1733db03493U, 0xbe55f6ad3ea36805U, 0x3c896c493c30e847U,
  0x3e47fb5dbd3d84a5U, 0x3e5e5ecdbd616ef0U, 0x3befa4623d1d9fceU, 0x3d7898fb3d16bf0eU,
  0x3dba67153dbd82e9U, 0x3df8c8fa3c2f5a90U, 0xbcb8d8a53e643622U, 0xbd1202e7be233118U,
  0xbdaab0a2bdd5165fU, 0xbd9f55ad3d93836dU, 0x3dd2f3c3bda24b29U, 0x3e1797cebd8547a1U,
  0xbe71b478bea2149fU, 0x3d478eb6be2ca3a3U, 0x3e6d9043be1f5c12U, 0xbdaa766a3dfa642bU,
  0xbd8c8f163c895325U, 0x3e10f5753e60a574U, 0xbc5203213e3339d4U, 0x3e065c3bbe6ccb93U,
  0xbdbd29cd3cb42b10U, 0xbe13b8a03ddc392cU, 0xbe1cbd913ea156abU, 0xbdbc8404bcc9bd75U,
  0xbd85ab6abe2c2140U, 0xbe15adefbda0d00eU, 0x3e5ba8b43e4e84b2U, 0x3d27aba0be120d5eU,
  0x3e41aea23e39fd4aU, 0xbe039a43bc36b6dbU, 0x3d2f92d93dd6d52dU, 0x3d77458b3d7062c9U,
  0x3e283a86bd613eb9U, 0xbcca94b8beb3e9baU, 0xbd48de13bd91e218U, 0xbddcdcf53e2dc718U,
  0x3d8ed7cabd0d2888U, 0x3e63a2df3c0d6f1fU, 0xbdf98400be8946b4U, 0x3e7febf93db8628fU,
  0x3dd0e2a13df81f86U, 0x3d4837443e1a90cbU, 0xbe0f9a8abd5d748cU, 0xbd887a083e2fac4fU,
  0x3e393b7d3e026d0aU, 0x3d483edc3dd17af1U, 0x3d340a7fbdcbb6e9U, 0xbe35c9733d53e21dU,
  0xbd6f04d7be524455U, 0x3c8b046abdbadbedU, 0xbda38d12bdbd36c4U, 0xbe4f1116be2dbfbcU,
  0xbe00c7aebcb77b02U, 0x3d491665be21a152U, 0xbe3265b13dda5d7dU, 0x3e2429ae3e0d0483U,
  0x3c494834bde21fb9U, 0x3db1d0c33d97c7efU, 0x3e4f5096bd7bb271U, 0xbd83bad13cd9fc63U,
  0xbe0af7973d621a93U, 0x3dabbb72bde24d90U, 0x3e184b1abdc34e88U, 0x3e03e4a4be078c1cU,
  0x3d09945a3d35cb6dU, 0xbdbc1fcbbdcd8996U, 0x3dcd00623dd3cde8U, 0x3d729d64bddac9ccU,
  0x3cb13e85bd28a4b8U, 0xbb85fd5cbe40964dU, 0x3da628a13d8ec56fU, 0xbe11ca283d8084abU,
  0xbdf3c5853e3ea4a2U, 0xbe3aa4663e128289U, 0x3dae9e9dbe008f32U, 0xbe8dcd22bdbe47e4U,
  0xb9e470f33d96b648U, 0x3e5bb394bd992de8U, 0x3e84527bbd7158f3U, 0x3e3d268e3d97bc67U,
  0x3dedd60fbcf394cfU, 0xbe4e5c363e430908U, 0x3cbf4d16bdca3bfcU, 0x3dede11e3d9465a2U,
  0x3d81d9c8bc58fdb0U, 0xbcc9866ebc635b4cU, 0xbe51597f3c690361U, 0xbe170109bd346733U,
  0xbe16d08e3e09d274U, 0xbe0ff1b5bda80895U, 0xbd51351d3e3ffaffU, 0x3d7ac0433e642888U,
  0x3cec5a613e505ba8U, 0x3dd169893da381e2U, 0xbd7c64063dd52d21U, 0xbde9df5d3e7aa754U,
  0xbd936e4d3dc6b0c8U, 0x3d84d1e63e456e78U, 0x3c4133ac3d27b87fU, 0x3c9349a3bda99ba5U,
  0xbe28b31abd07ff16U, 0x3d3487683e01f80cU, 0x3d9a9c713d602de6U, 0x3e60db5d3bb713cdU,
  0x3e6425bbbcdd3d2cU, 0xbdaba8953e2e4307U, 0xbe147fe6be0635eeU, 0xbdb7d37b3e0dacf7U,
  0xbd1ee481be0050feU, 0xbdcf508d3de027caU, 0xbde96b86bdd52842U, 0x3b8df69dbd8e1909U,
  0x3da8fa17be3d66edU, 0xbd526bc43ca40b5aU, 0xbdbf5adfbe6f4b00U, 0x38c524bf3dcf6207U,
  0xbdd953b43d14dba2U, 0xbd8ae75e3e367374U, 0x3d5fd0df3e02d2e3U, 0x3dc835e13d5cd60eU,
  0x3e13650d3e4dc4abU, 0xbda57f0c3e902234U, 0x3e743a713f2da96cU, 0xbdaa6520bcf9ba22U,
  0x3e6036adbdbfd2dbU, 0x3e3940073e3deb82U, 0xbe680c72bee09a7cU, 0xbba3c066be35dfe0U,
  0x3f29100aba063b5fU, 0xbe0160283ec107e8U, 0xbed2f3ac3e4bd723U, 0x3e187eb1bee42caeU,
  0xbeca2819be7162adU, 0xbc8ae0953ed685c1U, 0xbe3ba61dbe96193cU, 0xbeeb7b6e3d98312fU,
  0x3e5a31573e9dffd5U, 0x3eaaa9053dced691U, 0x3e8d8f633e4a8553U, 0xbd8b26983c3b091cU,
  0x3e875e643eb7eb79U, 0x3e8ee2353e1bf9aaU, 0x3d86f3333b4e714aU, 0x3ea101cfbe42d205U,
  0x3e5232503e6a3f02U, 0x3d95c322bd32b694U, 0xbe81a2d23dd70a02U, 0x3e8803f4bdc58dc8U,
  0xbe1e3c63bdedb54cU, 0x3e283b103eda61abU, 0xbdc5ac51be8ed583U, 0xbe5fd10a3e9d02beU,
  0x3e2cd1383e18c8faU, 0xbe17a3273c7862b6U, 0xbea44fbfbdd3fb4eU, 0x3d97794a3e7a0425U,
  0x3e6c433c3d59f9c3U, 0xbec1b9fbbee045f5U, 0xbee6f00f3bc6467fU, 0x3ea0ac553d515850U,
  0x3e9a9d113d925cb9U, 0x3eab7e4c3cac8fb4U, 0xbea180b8be72cdb0U, 0xbe3ab411be4aff92U,
  0x3e668b6d3e905bbcU, 0xbe9ed7703cd508c3U, 0x3e87d7eabee3fe32U, 0xbcaff356be6eeca2U,
  0x3debbe323e430fa7U, 0x3e2bf636bf05509aU, 0xbe90cecabe40d529U, 0xbeb36c993b98786bU,
  0x3e841a52becebd8eU, 0xbe03209d3e383f57U, 0xbde36f06be9ca70cU, 0x3e926a92beac7292U,
  0xbe63264c3eb4523dU, 0x3edf814a3e37e837U, 0xbe9357fbbeb5ce5eU, 0x3eb6b2203bbe3237U,
  0xbec7ec2bbd67a01fU, 0x3e4548b2bd2f5eb3U, 0x3ed57c903e89af40U, 0x3d03e4973e8582c1U,
  0x3eb63851bd84b300U, 0x3e167141bdb434a6U, 0x3da564bebead4bfaU, 0x3db11575beb235c5U,
  0xbe68d5e9be58ad52U, 0x3e7c247dbd8f380bU, 0x3ebed5503e61c900U, 0x3e6cc6e4bec54063U,
  0xbe9d57cabc3be29bU, 0x3d1719b1be8e04e7U, 0xbd4b9ab73e8de13eU, 0xbeaaf7583e903283U,
  0xbe4608f53eafb6e1U, 0x3d99797a3dcc1b28U, 0xbe4694643e3abe9dU, 0xbde75ede3d95191aU,
  0xbdb11a95beb3c9fcU, 0xbe0f889ebeddbaa2U, 0xbe7848dcbed0c062U, 0x3da1dc0abe70b823U,
  0xbd9e0d483ea9636dU, 0x3e260d1abdae06cfU, 0xbebf6291bebbb362U, 0xbe7e49c4bc0640d3U,
  0x3d2b0b39be9d4c6fU, 0x3da68807be9f34e0U, 0xbd37cef5beffd154U, 0x3e345dc83e87afaaU,
  0x3e524e773e30a490U, 0xbec563b6bea4231fU, 0x3e0578ca3e6069efU, 0x3e31758ebe6e1715U,
  0xbd8bbbe03ea4c5aaU, 0xbcb9f6a6bd1da70dU, 0xbe098f1aU,
};


ai_handle g_network_weights_table[1 + 2] = {
  AI_HANDLE_PTR(AI_MAGIC_MARKER),
  AI_HANDLE_PTR(s_network_weights_array_u64),
  AI_HANDLE_PTR(AI_MAGIC_MARKER),
};

