/**
  ******************************************************************************
  * @file    machine_failure_data_params.c
  * @author  AST Embedded Analytics Research Platform
  * @date    2025-03-23T23:30:41+0100
  * @brief   AI Tool Automatic Code Generator for Embedded NN computing
  ******************************************************************************
  * Copyright (c) 2025 STMicroelectronics.
  * All rights reserved.
  *
  * This software is licensed under terms that can be found in the LICENSE file
  * in the root directory of this software component.
  * If no LICENSE file comes with this software, it is provided AS-IS.
  ******************************************************************************
  */

#include "machine_failure_data_params.h"


/**  Activations Section  ****************************************************/
ai_handle g_machine_failure_activations_table[1 + 2] = {
  AI_HANDLE_PTR(AI_MAGIC_MARKER),
  AI_HANDLE_PTR(NULL),
  AI_HANDLE_PTR(AI_MAGIC_MARKER),
};




/**  Weights Section  ********************************************************/
AI_ALIGNED(32)
const ai_u64 s_machine_failure_weights_array_u64[1411] = {
  0xbf9ba3c1bbebef56U, 0x400bc9a2bc48b8d9U, 0xbf7468753fc32c0aU, 0x3f5d83e73f6e950aU,
  0x3eb3910cbffc8216U, 0x406ea0263fc63372U, 0xbeac755dbf2f300bU, 0xbfc8ba36bff865cbU,
  0xc0854244407df104U, 0x4064becc3fcac131U, 0x404e9ea2bdc8ef21U, 0x404aa4d34040f542U,
  0xbfbc28b63f888b39U, 0xc069a62f3fe27d94U, 0xbed77f9d3fa3a999U, 0xbf2a05f2beff02a7U,
  0xbfa9b8613f0da86dU, 0x408c845f40d1a62cU, 0x3e97a006bfac8d3cU, 0x3f19b82c3ebf26a2U,
  0x4090decec040e5bbU, 0x3fe93e31400f563dU, 0xbf5d73acbff374f9U, 0xbed4a00fbe30df8fU,
  0x3fe0d7e3c03be0efU, 0xbf43a64a400431c7U, 0xbf4981863f02486cU, 0xbf0c2d73bfff99caU,
  0x4012a2afbff61352U, 0xc0e28cf0c0c79175U, 0x3fb670f53ec455ebU, 0x3f3ffce23f3503bbU,
  0x3f45846bbfb356a9U, 0xc00f46fac016043cU, 0xbfc930e6bf9c061bU, 0xbf1a5475bfe687daU,
  0x3fe38190bffad0d5U, 0xbde8cd5cbd255622U, 0x405ba8fc403ce11bU, 0x4034dfeb40595e23U,
  0x3fe9cae2c0282d52U, 0x3ff01f333ebb7ea8U, 0x3de69739bfca11a8U, 0x3ff502453f7624a0U,
  0xbf29b292bfb67934U, 0xc0273c283fc539b0U, 0x3eddf9793f69278bU, 0x3f15bdbebd9b4632U,
  0xc0a9527140b2e6b9U, 0xc047e51cc0a03161U, 0xc070c0cdbf98b9afU, 0xc079415bc083e2e4U,
  0xc0670ef54068414fU, 0x4044df4ebf09e665U, 0x3f956cf7bfcbe98cU, 0x3f9509bf3f09d68aU,
  0xbf84712cbdc296e8U, 0x3de084e1bf3e68c2U, 0x3e6f120cbe616ec1U, 0xc01b9b70bfaa5b70U,
  0x3cd92fd1bfcae4daU, 0xbbab4255400d876bU, 0xbfed143240229034U, 0xc02f4e19c00a0cf6U,
  0x401a6d06c02c7cb2U, 0x3fce7d5e3fc4ace1U, 0x3fb3d17c401d4cbdU, 0x3f4eb3153fabd80dU,
  0xbf9691933feeaf61U, 0x3f4438f2c01c8d22U, 0x4008ef4d3fc3fc72U, 0x3f9686b93fba5defU,
  0xbf8187573ede448bU, 0xbff2bd4dc04483d0U, 0x3fc9fc9dbec62fb2U, 0x3dc7f9003fcdee5bU,
  0xbe1693c7bf660c9dU, 0xc0447b23c02b6eb9U, 0x3f204fda4010cd52U, 0x3f198a523dfa2c31U,
  0xbf646f59bfdd98b9U, 0x3e2675103f2e7f95U, 0xbe675f63bfddd774U, 0x3fa7f04fbd3dcc39U,
  0xbf465e9fbf95fd83U, 0x4042da77bed0dca3U, 0xbf8e09373f4ec580U, 0xbe99b0afbe6dae3aU,
  0xbede465b3f33022aU, 0xc0600e723f8f601fU, 0xbf9fec033f8644b1U, 0x3d43b2a43c020c4cU,
  0xc0ad507740a87a3fU, 0xc034250fc0ba3314U, 0xbf6f87f1be6a2ce2U, 0xbfcca6d8bfc2b2d4U,
  0xbf55267ebf1b286eU, 0xbeff30603f99d250U, 0x3f8568df40238df9U, 0xbeee5b163ea32cc1U,
  0xbed9a4f0bf2f7c07U, 0x40910836400d3111U, 0x3f241cc53f155b9cU, 0x3f25f2b53fac24ecU,
  0xbeae88ec3e634b63U, 0xc0f1119cc0d422b2U, 0xc02ec5193f62afd5U, 0xc02f8ad3c035b8f6U,
  0xbfdb4a433f8cf9edU, 0x40221d5cbf14a018U, 0xc014063abfc076e0U, 0xc01f8abdbfc9bd08U,
  0xbf5ad18b3cfe9d94U, 0xbfb5c071bfd3af93U, 0x3ffe618140378cd1U, 0x3fc1fa12400fc41dU,
  0xbf54ff8940092ed8U, 0x4068321740048a35U, 0x4028cb44bfde6272U, 0x404865354061c499U,
  0x3d7b9327bf804367U, 0xbebe09e33e90211aU, 0x3fae1383bf3f88e4U, 0x3f87fbedbf13daa6U,
  0xc000103140086416U, 0xbf8ac336400a599aU, 0x4007dd4c3ff6106eU, 0x4003c09e3fc85579U,
  0x3ff32bcfbfbb8530U, 0xbfeb2076bfc4ad1eU, 0x3fe7dd22bf7674b1U, 0x3ff36d0c3f1de777U,
  0x3e7ca78a3fb2bba8U, 0xbf6969a6bcce04ecU, 0xbf201eb5bfb2272eU, 0x3fa4e7a03f0482feU,
  0xbea459863f017a0eU, 0xbff6a1f1c002fc2dU, 0xbf89d5eabfd89ef8U, 0xbfc2faf03e834e53U,
  0xbccb84ff3efa9804U, 0xbfdfcaccbe0e2d30U, 0xbf10c5ac3f8e4201U, 0x3fb993bbbe218dafU,
  0xbfb1641b3ff9f57aU, 0x406541a53f884365U, 0xbf8eac45bfda91eaU, 0xbfb80d15bfbc5986U,
  0x3fdd6a7bbf9bd127U, 0xbfb590be402a73a7U, 0xbf96b4fec0157213U, 0xbf9e97dabf9a77b3U,
  0x3ed98331be9f0c3fU, 0xbfb54a59bf4cfdaeU, 0x3f9e5405bf92e555U, 0xbf1849043fa23b3dU,
  0xbf8e755c3f932f59U, 0xbed222d33f2fda94U, 0xbd57ac08bfb70204U, 0xbfca3cda3ec495acU,
  0xbdeed246bf9450e4U, 0xbf47073ebf90960fU, 0xbeebd88dbfcbb7b3U, 0x3fc85d573e3534cfU,
  0x3fd42370bd942324U, 0xbfc7c147bf42682dU, 0x3f9b4a444010c0c1U, 0x401458cb40151fb9U,
  0x3eb4614bbfea8805U, 0xbf10a878401db451U, 0xbf2f3c96bfb9daa9U, 0xbe8de72a3f053d9fU,
  0xbf270c13bf4a57b4U, 0xc001f7133f6265efU, 0x3efd241cbff6d0b8U, 0x3fa6f1f13f79ef6fU,
  0x3dc8e8503f8306ecU, 0xc07375a33fa4d55aU, 0xbc9b8b123fd7059bU, 0xbf8f37d5bf54e959U,
  0x3eec9faabf920ccaU, 0xbf42311bbfddeb19U, 0x3ffacfdd4040611cU, 0x3fe669414017c3a9U,
  0x3e9e54c33fe2ca0bU, 0xbffc52babff0c272U, 0x3f0bb1febfb6073fU, 0xbec788663f179123U,
  0x40196cbdc0183188U, 0x40d92b6040ea4df2U, 0x3eb594a23f010cd8U, 0x3e930b363e9e900cU,
  0xc065e86b404bedb4U, 0x3fa38d73c02f05abU, 0x3daff993bf0aaa21U, 0x3ef490863e4e38dbU,
  0x40008a0fbfc6a3fbU, 0x4043ab693fc92313U, 0xbfa1eb19bfe31a70U, 0xc02a6842c015fbffU,
  0xbeb049dc402bab90U, 0xc09c3dcac0b9d939U, 0xbfb86a0fbf249101U, 0xbf8741b0bfc063b7U,
  0x3f0aded1be986fb9U, 0xc005bf343f66866cU, 0x3fa953fcbeca2137U, 0xbf23abe73f8df04eU,
  0xbfe9b05b3f43f049U, 0xc09e449fc0d62594U, 0x4089089ebfd11d5cU, 0x407fe484406aa166U,
  0x3ecea6ffbf801d69U, 0xbefe62bd405940e2U, 0x3e80c10ec003209dU, 0xbea95666bf2d5a34U,
  0xbfa9d6913f210f17U, 0xbe8c99333f2a0e9dU, 0x3e91057940190f5aU, 0x3f8dd2e13f048e9dU,
  0x3ea8ba1c3f769799U, 0x3fff3c8ebfa6942aU, 0xbfc0cbc4c005aefcU, 0xbfa72b1fbf0e6303U,
  0xbf47aee73e4423caU, 0xc02de209be8ab20cU, 0x3ff87ad9beaaaf64U, 0x3d7765db3fd493e5U,
  0x3f3e7571bf42b6d7U, 0x3e2bd670bc75cf96U, 0x3f88be9abfd097feU, 0xbf35c8b63f7557e9U,
  0x402554b7c06e0c2fU, 0xc0147573c03a9d42U, 0x3f2ccc88bee3dbc4U, 0x3f9ad7ee4018ac8eU,
  0x408efa72c05ba4baU, 0x4075403e3f910d1eU, 0xc00c66a73f35b725U, 0xc0100a4dc00ece3eU,
  0x3fc2c8533f2d17e6U, 0x3f4c19e13fb9647eU, 0xbfb2aea63f096073U, 0x3eb3beffbf0fc2a9U,
  0x3fa74d77bfdf0578U, 0xbfcc9a82bfb6921cU, 0x3fa02e9dbf305842U, 0xbf08f1923f6fe3cbU,
  0xbee7bb344000ff12U, 0x3f6d749cbff0bffdU, 0xbed0e1ad3fdbd0d6U, 0x3f1a7a263f111202U,
  0xbfa6682a3fca1f63U, 0xc084536fc0bfd3d5U, 0x3f8b9e4abfd860aaU, 0x40289b21404fcfabU,
  0x3f526e24bffce43dU, 0x3fd43870c0ae5350U, 0xbf5b1756c0317bd3U, 0x4089400e3fdff171U,
  0xc09868d040883fc2U, 0x3fe3c629bf8b2aa5U, 0xbfc112f240e31c12U, 0x3fc3e065401cfcabU,
  0xc0260e9ac071bac3U, 0x3fb91d003f9e9708U, 0xbd87b14f3ff82c68U, 0x408ce3ce3f9e798dU,
  0xc059beb3bf161df4U, 0x3ffef46c40f641e4U, 0xc0b2bc6ebff8f0a6U, 0xc03049983f819242U,
  0xbef25c443ebc9bb9U, 0x3be0e1344037f11bU, 0x40106bcebe949420U, 0x3f83b9163f671921U,
  0xc0556ec03fe4414fU, 0x3fe3a7df3f9762aaU, 0xc021bb7f3f99c185U, 0xc0b525103f2b9f31U,
  0x3f7ae923bd91624aU, 0x3edef289409440abU, 0x3f9e51263fe41630U, 0x3eb58762bfc1ff31U,
  0x3e8847ff3f3854a4U, 0xbf88ba7b3f6d8847U, 0x3fa2e78dbffc7194U, 0x3fe0a446c01e4179U,
  0x3d929d693c2fe938U, 0xbd73113ebd9d6226U, 0x3d8ca26fbca71819U, 0x3cc212d23ce578e9U,
  0xbcd0db283d9eaec0U, 0xbd38ac423d90fd45U, 0xbd5e4f70bd2b2d06U, 0x3c6af6823a52beb5U,
  0xbc6e65d5bbf49517U, 0xbcf823453cc11dfdU, 0x3d38eabd3da6a704U, 0xbd8844d03b6aaeaaU,
  0x3cd2316f3b58ada8U, 0xbc95654e3c4a0651U, 0xbc3d42353ba810bbU, 0xbc5b23023dcdc523U,
  0x3cdcf40b3b62745eU, 0xbc1477c33d1425eeU, 0x3c347172bc9057dfU, 0x3c143f973ced4cf0U,
  0x3c8051d63d60fda3U, 0x3cfa6bd3bca6e6ceU, 0x3b7e4882bd78dd4dU, 0x3cc5d3833ca6abfcU,
  0x3d2faa28ba24444eU, 0x3ccacba5bba88c18U, 0x3d1c04d93d0e205aU, 0x3b1071c93b9ef991U,
  0x3d22e238bbeeb5f2U, 0x3dd639493d3da048U, 0x3d65b53c3b41a916U, 0x3c5cb50abc7d15faU,
  0xbdf710c03dbe29f8U, 0xbe5300f1bc20a02cU, 0xbd2379a5be13c4d2U, 0xbd6fb557bd4e84a5U,
  0x3e2589113d9110f9U, 0xbcdd59c9bdf91241U, 0xbe3a07de3da9439aU, 0xbdd806aebcdff5d0U,
  0x3d7b5f013e494473U, 0x3da806e63deee329U, 0x3d9c5f033ce3d104U, 0xbdb14ee6be2ed435U,
  0x3dfb294dbdf00015U, 0x3bad23f3bd637b99U, 0x3d3cf5d03dca6b27U, 0xbc05d651bc274a50U,
  0x3d3c98eabd507002U, 0x3dcdcb6f3d9fea9aU, 0xbde9e365bd3cf69dU, 0xbdb22ca93df7d6d5U,
  0xbde10ac9bce84d15U, 0x3db3f1bfbdaf44adU, 0x3da7d965bd93bd7bU, 0x3dbcc37abd97a77fU,
  0xbe0dbd5d3ccbf44dU, 0x3ddff9873d3c8710U, 0x3d5b351fbd6d5c1bU, 0x3debe984be1dbabfU,
  0x3c421c92bbb49f1aU, 0x3e0849fa3c8f1ce8U, 0x3db9221bbdf67390U, 0x3e09841f3ba19f0cU,
  0x3a899f0f3e0ec541U, 0xbdf553cdbd97b32dU, 0xbd00743b3cac0b44U, 0xbd95cb9fbe03ea03U,
  0xbc4435ae3c06f4b5U, 0xbe1d6ed6bab56c92U, 0x3e5b83b43bd6a1d4U, 0xbda1bc2bbd9f2759U,
  0x3d6cefda3d7e808fU, 0x3d348be7bde7aefaU, 0x3e0667623ddb5d4cU, 0x3de7ab05be2d1e5cU,
  0x3d0be911be079e88U, 0x3e466bf6bc1b2250U, 0x3e2899b6bdbb3357U, 0x3d1ddacbbd60590eU,
  0x3dca9216bda3a166U, 0xbd9d71d9bd004be4U, 0x3cfcdb683e2727ccU, 0x3dd32f04bd7f289bU,
  0xbe246bc43d338652U, 0xbccd99f9bda1e2f8U, 0x3d9639c4bd177a5bU, 0x3da3025dbca86408U,
  0x3da90f213e38ca5eU, 0x3c74fc3bbcd40de0U, 0x3c17bcdabd990d8cU, 0x3e1931013de7d298U,
  0x3dfbf06ebd982c7bU, 0x3dcebb56bd6ed7b5U, 0xbdb7a56c3d9b4224U, 0x3d8987fe3bb4340cU,
  0x3dc5dd943d12f755U, 0xbd7af3e03c8cb1b1U, 0x3da025ef3da9bcd5U, 0xbd939131bd8b029bU,
  0xbd563769bd624d98U, 0xbb6205013d81593eU, 0xbcde0b62be2f07ffU, 0x3d979e07bd837b3fU,
  0xbd5edfb0bc997ad0U, 0xbd8e9966bdaa6b90U, 0x3d8fe006bd971f84U, 0xbd2a5a093ad62ef7U,
  0x3d9f54c03d0a7018U, 0x3d8b7579bd7d6f85U, 0x3dc05fc6bca27bc8U, 0xbbac94ed3c874d57U,
  0xbd1312c3bd91afd5U, 0xbd1f6b70bde9a627U, 0x3cc347a13d8562a8U, 0xbd320c30bd271493U,
  0x3d2daa8cbd877834U, 0xbd856202bbb227bdU, 0x3dc812ccbcaf4c7dU, 0x3d2452bbbd19abcdU,
  0x3d12f484bd8eb05eU, 0xbdad2820bdc96447U, 0x3d0d1d08be0abfcfU, 0x3d0f8b3f3c2fb6fdU,
  0xbd31a169bdba5ffeU, 0x3e16e3dbbcd683bfU, 0xbcc51ad63ce77d2dU, 0xbd274cd13de9424eU,
  0xbd39f3d93ba5e7e6U, 0x3a5659e23d54969cU, 0xba4c530d3d6b829fU, 0xbdddff3e3bc3ca5bU,
  0xbd85ff1dbdbd6836U, 0x3d48c81b3d4c7b1cU, 0x3ddaac843d2b7c58U, 0x3d3cc961bd2c28f4U,
  0x3d381086bdf55a5dU, 0xbdadf4783cca9182U, 0xbd4f1898bd928c84U, 0x3cb8bf153a2a8eceU,
  0xbbac7e6fbd16228fU, 0x3e2b1fedbd90599eU, 0x3d1260ffbd95451eU, 0x3da4029abd691e8eU,
  0x3d92aa573bf23953U, 0xbd7af3323c890c80U, 0xbbf10a0d3c50317bU, 0x3d9674b33abd2392U,
  0x3d050b0bbd9bdf06U, 0x3daf7502bac7ac28U, 0x3d132d26bccaba9dU, 0xbb23b10dbdd01eaeU,
  0xbd6193913e1af5e1U, 0x3cfb902fbd8e13a1U, 0x3d4ec8133cd74621U, 0xbd86be11bc06fddfU,
  0x3c75fcc1bda4f01aU, 0x3b8807e7bdd31be6U, 0xbddea0b43c7c4bf0U, 0xbd78b4663dc712a1U,
  0xbc27003cbb0fdc7bU, 0xbdab04093d94b552U, 0xb80e0f383d8be799U, 0x3de292113ce56013U,
  0xbe106b373d7fc0f7U, 0xbce1e0eb3d1be778U, 0x3d89ef743d85225eU, 0xbdd7543dbd98b243U,
  0x3d816ae3be285568U, 0xbdd71ee33dd6d194U, 0x3db7a3b33d5de024U, 0x3de2dd09bd15e6c3U,
  0xbda347e13d59780eU, 0x3defd03f3a844c43U, 0x3d8a4d353d0e4494U, 0x3d523f6b3e1be1c4U,
  0x3de0bdcb3e1a09f6U, 0x3d5807563db9181bU, 0x3d6d8eaebd5ef4cfU, 0x3de0cb923b41d2d5U,
  0xbc8dcf333d2d1b74U, 0x3df92967bd994207U, 0xbe18a29cbdbbe7c2U, 0xbe2f8c903d00a353U,
  0x3dafa5a83d86d7d6U, 0x3d267d213e59bce0U, 0x3ccd1d483da4e5a0U, 0x3cc26203bda4a36cU,
  0x3dbfa16abc65110eU, 0xbd92f6e33d76a9c5U, 0x3d889ecabc903105U, 0x3e4dddd73e096a45U,
  0x3dc7e9ddbd46e719U, 0x3cd584b73dc7f699U, 0xbd83a358be376730U, 0x3d0b5e32bdcb54e8U,
  0xbd27ae2cbe01ba55U, 0xbd99a58bbc87a731U, 0xbcbee7bf3dacce03U, 0x3dae7f82bde233e4U,
  0x3e0c70c4bd812f91U, 0x3e0f3fe63cfc3872U, 0x3d84a42dbc81351bU, 0x3cba7f4e3dc3ff91U,
  0x3b26caa63e25e24fU, 0x3cfff3273d4faf05U, 0xbe1eadbe3df8fde0U, 0x3e288c3f3d749736U,
  0xbd8bd9513d482a72U, 0x3d82a697bcebd9adU, 0xbe0c626bbe12f17bU, 0xbe03b1ab3c82cc9eU,
  0x3dc92c93be107e05U, 0xbd96ef63bdb747ceU, 0x3e2e8136bd290305U, 0xbde51cd9bc478fa2U,
  0x3d9921483d691cc9U, 0xbbcc93a1bdc92bd0U, 0xbe04e8c23cfd0e81U, 0xbd6d57d73d7f8515U,
  0xbcc269a4bd57454cU, 0x3cb4d9273d415c37U, 0xbca4a047bdf08974U, 0xbdbfe6883e1c67e7U,
  0x3d2765cabd880a5fU, 0x3b44428abdeb3483U, 0x3dfe32463e1684a2U, 0x3dae614e3df70e89U,
  0xbdfcba073db39742U, 0x3e23b24bbb55d022U, 0xbd9c2a06bd577e5aU, 0x3d3292c1bdab462bU,
  0xbd86e8aabc9217dcU, 0x3e01849f3ce19a1dU, 0xbc2871d63e4bdb0bU, 0xbdefc4e13e1e00fbU,
  0x3d5308bbbd8721f3U, 0x3d3416383c89ba48U, 0xbded35a7bdb2d566U, 0xbdbe3c613e56f07bU,
  0x3d6321de3d6aae1aU, 0xbd6d11333d506e55U, 0x3d84d985be0077eaU, 0x3d4c14b83e16fe22U,
  0x3dc132733e0238c5U, 0x3db594bb3e1074ddU, 0xbc41e4e23e084bc0U, 0x3d39cf80bdb0bc5aU,
  0x3db28c7bbcca5129U, 0x3e0c9c5d3d495c4cU, 0x3e2393753de2b8c1U, 0x3dc85f77bdbf518aU,
  0x3dfef1723ddd67a0U, 0xbc8fc48c3e068e94U, 0x3e03e7e0bce800c4U, 0x3c982d16bcd5579eU,
  0xbde78221bc467d7dU, 0x3cbf4edebd91865eU, 0x3d1027cc3d29dd93U, 0xbb92b4863c2e4042U,
  0xbe317fd2bc422d53U, 0xbdb59ee13df8dfcfU, 0x3e0aa2b33e781907U, 0xbe1240b83d9a885bU,
  0xbab88d79bd08f66aU, 0xbd2acb0e3da46fbbU, 0xbde6c65fbd61816eU, 0x3e425ae93ce78189U,
  0x3cd508fabdeb808aU, 0x3cbb2ab53e2e9274U, 0x3d31cdf83c07948eU, 0x3d8e0f363af8c812U,
  0x3d3f0f1cbc861a86U, 0xbbc49176ba94b2a2U, 0xbda26cc33ce735b6U, 0x3de4a034bcc28aecU,
  0x3df7faa2bd47fcafU, 0x3d918049bc824bbdU, 0xbb0cf9f6bdc25a33U, 0xbe29d0c53e0e7413U,
  0x3dcd1c9f3d924634U, 0x3c27599c3df24abfU, 0xbd9b0c073e5929c0U, 0x3e06bcb5bd6ba1c7U,
  0xbd72195f3dcea952U, 0xbe38cfa4bcbbd549U, 0x3dc354babd5a3288U, 0x3e4ddd2d3bbd7260U,
  0xbd5d4d7c3d090fedU, 0xbd9c63b83d5f2734U, 0xbe160f99bdd27a68U, 0xbc02fcdebd6cc6f3U,
  0x3dfdf717bddac553U, 0xbd3e33f4bdd8a18cU, 0x3c299a3bbc2b7e52U, 0x3e3322323c280d9bU,
  0x3dd8f56f3e0b2f4cU, 0x3cc564593d1c815eU, 0x3a1478b2bda5b560U, 0x3d9c9897bd8be797U,
  0xbccddb603d21663fU, 0xbd5a2dc8bd96e810U, 0xbcebff4b3d515f9aU, 0xbd4adecabda411b7U,
  0xbcc79097bcfd23a8U, 0x3c3bbc61bdbcda66U, 0xbdc7b654bdf7e82eU, 0xbdb96cc1bddde4a3U,
  0x3dd54debbce44516U, 0xbc8f0ba2bbf42b41U, 0xbd056116bc7c7a1aU, 0xbd467dae3c18136bU,
  0xbde15079bd3f075dU, 0xbe0704af3ce6b81cU, 0xbdcf80aabd1e5670U, 0xbbdae70a3dab58c1U,
  0xbbf8f626bce6d639U, 0x3dd04ae4bd58e5aaU, 0xbccf9ec7bd94a1eaU, 0xbdbc89643dba9098U,
  0xbccaff3b3dc6b23bU, 0x3bb8e1a8bdf72d15U, 0x38b2d2f7bdb423a9U, 0x3da305fe3e24f61aU,
  0x3c03129c3d83c318U, 0x3cfb6f3a3c2aaae2U, 0xbd27dbfdbc628d3aU, 0xbd13197dbcaa5bd8U,
  0xbd0fb4dc3d268decU, 0x3e0716e33ae28eceU, 0xbd18fee83d4e9b7cU, 0x3d875ee33e05806eU,
  0xbdc060053d187cfcU, 0xbc7d8dbf3e6b969aU, 0xbd5cab9b3df0cdebU, 0x3e36865d3e010c72U,
  0x3c6e18233da012c6U, 0xbc31418a3d669be5U, 0x3d92e0a3bc6a26f3U, 0x3c5325b13dd228d3U,
  0x3d9d3db83d643bb6U, 0x3d0160f03d478e67U, 0x3da56d313e55cf63U, 0xbe2635fa3d9f3dd2U,
  0xbd663760bccfcd73U, 0x3c4f301a3c8f56ecU, 0xbd593b233d65fa65U, 0xbd39bb0f3c6cdf92U,
  0x3d596c1e3d8db109U, 0x3cd006793d60f3d7U, 0x3da24428bcd49090U, 0x3cf1f3a6bd50ad9bU,
  0xbd43dc383d0b95e2U, 0xbdb3ec3abdfbe267U, 0xbb0651273d0b37f6U, 0xbd361745bd6e3e9cU,
  0x3d89b508bc0a7338U, 0xbc93f50e3d4891a2U, 0xba8916d8bd8d1ac8U, 0x3db037733dc557ecU,
  0xbca137683d66d2ceU, 0x3d6bd1b63d838a03U, 0x3ca6483cbacfaa35U, 0xbdeb1e38bd54d8e5U,
  0x3db357b03d7392f2U, 0x3d87977ebcb4c2f0U, 0xbd8d19583d3739fcU, 0xbd9e2d8f3c30a935U,
  0xbd21b1f43d29b692U, 0x3d8776493dade51fU, 0x3d91004fbd57734eU, 0x3cadb0e83db99cb8U,
  0xbcebbd4d3db268a3U, 0xbd5aa7abbc989f08U, 0x3e1fdbe1be15eef9U, 0xbd303654bcedf27bU,
  0xbd827e113c199a27U, 0xbd997155bda07625U, 0x3d785a643d112f8dU, 0xbd1eb1ff3da4e9faU,
  0x3cc26e86bd974f75U, 0x3db693a93e1e436aU, 0x3c850b9c3d0bcd6eU, 0x3d90197f3c5076a9U,
  0xbde281ccbd85497cU, 0xbd16d4df3d62c13dU, 0xbd7355253bdd4f9bU, 0xbe010da3bdc3c24aU,
  0xbe216a013d44e99fU, 0xbdf8f29cbd91c0efU, 0x3e635c0b3e48e598U, 0xbe48daad3dac608cU,
  0x3dbbc3ebbd8d5cbeU, 0xbb32eb3e3ddfc29dU, 0xbcc3df543de8dc98U, 0x3d118debbdaac50aU,
  0x3d3b9ef9be1ff3b5U, 0x3ccd068bbc16976bU, 0x3e3db944bdfce4abU, 0xbdad4cc43d947072U,
  0x3c856a283dff9e31U, 0x3e30f6b03d9e440fU, 0xbd05b5863e1200f5U, 0x3c7180253d90e8b8U,
  0xbdf2ae093d4ac5caU, 0xbc10719a3c2b9464U, 0xbd2f6892bc957d9eU, 0xbe3487f43d3575efU,
  0x3cf44d3b3d90012cU, 0xbd9a07d43dd9e036U, 0xbd5466503dc600a6U, 0x3e09b4443d9b0789U,
  0x3d85c2883d3f84c9U, 0x3ae7d55fbd6f9c5fU, 0x3c079725bb82a209U, 0x3daa09463d192f6fU,
  0xbe05c5d83dd3aadcU, 0xbe54dd1f3dab632cU, 0xbd0006babe194017U, 0x3b79fc6bbd636161U,
  0x3e1251ae3b2e4c27U, 0xbdefd745bd8b802dU, 0xbd0835b23d7398c3U, 0x3b9c551f3dc66efdU,
  0xbd4a8c993d8c4164U, 0x3d2901fcbd1f5920U, 0x3d7a2b55bd49bb6fU, 0x3e0b2052be2d50d5U,
  0xbd697eb1bd8a497eU, 0x3dfced9f3a1e3694U, 0xbd1d84dfbd0f21a9U, 0xbdf6236a3cbb04d6U,
  0x3d42f055bdbd6e80U, 0xbdcec024bc87e432U, 0xbdda82c7bde0f341U, 0xbd9baa0c3a02095aU,
  0xbdee674fbd0ec260U, 0xbd232f0fbd8bb1d2U, 0x3e040897be2b2b30U, 0xbdc143a8bcacd264U,
  0xbdb0273c3de7a8beU, 0xbdc498163d7b62bcU, 0xbd921ac0bb9cff1eU, 0x3e17db7bbdba65a6U,
  0xbdb02300bdc21059U, 0x3d6edb74bd0b0b21U, 0xbd04ac47bd53bcb8U, 0x3d83f04a3e10f1e1U,
  0x3cc762e93cf1976fU, 0x3d4c3684bd51e4f7U, 0xbd9022afbdc3d50aU, 0x3e827c24bb660f38U,
  0x3d85791e3d965407U, 0xbd6645dd3d97d350U, 0x3db50e0e3e134ea9U, 0x3d78731b3e023b0bU,
  0x3daee322bddf95beU, 0x3d5eedda3db67066U, 0x3af7ebc63cb7206eU, 0x3dc450523d9b9fa6U,
  0xbd32d8e8bd74b064U, 0x3cee0ea23e77001eU, 0xbcee3ea1bda2ec94U, 0xbc8aa3373dd58628U,
  0x3d7f2dd13e10085cU, 0x3de25f123da9132bU, 0xbdbb7087bd37e9dfU, 0x3db38d9e3de60f54U,
  0x3d3180023e1187efU, 0x3d54cbfbbc24af41U, 0x3e065da73df1cb22U, 0xbe4a86703e0169fbU,
  0x3d3825583da0b0efU, 0x3d9b50863e4f1ffaU, 0xbda1dca23e10e9f2U, 0xbcef42963defa6a2U,
  0x3d9b861abc123157U, 0xbdd4a9a63de380eeU, 0x3daba2f9bcad9310U, 0x3e45dedd3da7f1efU,
  0x3b3d6af9bc8b8809U, 0x3e2fd12e3d2e257cU, 0x3e3013013e3d33e8U, 0xbe050155bcfbf9c5U,
  0x3d118a90bdde5b92U, 0x3bd8892d3d911df6U, 0xbcac2251bd14010bU, 0x3dd0790cbd23dbc3U,
  0xbd138c1c3cac3f6fU, 0xbd792144bd6ed2edU, 0xbc9cdd053e1521d6U, 0xbe17b609bd107e57U,
  0xbd248cdf3ca5353eU, 0x3dc2d020bda1fba2U, 0x3d9b03a23c2781b6U, 0xbd57fcf2bdc27252U,
  0xbcd14fffbdf2f1b8U, 0x3d42dc20bd743579U, 0xbc77b2963cc5547aU, 0xbc7b715a3c9d1264U,
  0xbdc9112a3d1a6fecU, 0xbd8b5c413e276364U, 0xbda6d684bc6ef0a7U, 0x3e267060bd1def7fU,
  0x3e1613443d4f1f88U, 0x3d2ec871bd431fcbU, 0x3e0f7a31be2eca30U, 0xbdd61c22bb9ca02fU,
  0xbd43f6aabcea640bU, 0x3d9697723d525fd7U, 0x3d0c4da13c4b4bb0U, 0xbe0dc643bdaba8efU,
  0x3d7b1455bab862adU, 0xbd8997503d9d5847U, 0x3da3c3073d97fcbeU, 0xbdb36f60bd93eb1cU,
  0xbe11e6ca3ce2c262U, 0x3cca781bbc92c210U, 0x3e28351e3d902332U, 0xbd498ba03d321a96U,
  0x3da7dfbcbddb1eceU, 0xbd84504fbce14d1cU, 0xbd503c90bcd0b5f7U, 0xbd1aff7c3c722358U,
  0x3d43fd10bdef9c57U, 0x3dab1614be07a6beU, 0x3e4124b4bde1694aU, 0x3d8dfbdf3d372fe0U,
  0x39834e98bcb4ca4aU, 0xbd9764803dbf1f8cU, 0x3d5608a93e1e4cddU, 0x3c2628babac63deeU,
  0x3cb2cf823d01ef3bU, 0x3db148fd3d465908U, 0xbe1b84f6be1c6717U, 0xbd1be9053d1adfb5U,
  0xbafe1a723d975aaaU, 0xbdd96ed6bd303895U, 0xbce26520bd9c5cbcU, 0x3defc6b03d44c817U,
  0x3de9aa9ebd089515U, 0xbd93ebd9bdb45c58U, 0xbd0f833fbd869a41U, 0xbb47c79b3e07bddcU,
  0xbb6ac87dbd0f207bU, 0x3cb60ea1be08ac9cU, 0x3df7c35fbd64a460U, 0x3dfd0051bccf910cU,
  0x3d648d283ccc02dbU, 0xbdbef5d23d7bcd9dU, 0xbd3c4982bdbf5543U, 0x3dc6a2703de63c5cU,
  0xbd81cb32bcf11df9U, 0x3d6e0e16bc8fa13dU, 0x3d496a2b3df204dcU, 0xbd3fc5b4bdb39357U,
  0xbd5433493d368c83U, 0x3c908be63e0111f5U, 0xbd583d243da15213U, 0xbbfbc6883c2cebf8U,
  0xbd57f59a3e1930e1U, 0x3d915d583dc6e3aaU, 0xbd0d841f3ce7e9a9U, 0xbcd5004c3dc534bcU,
  0x3dbb3fbb3dea37a7U, 0x3d814e473d6ba75cU, 0x3dfb8fbf3d2706e9U, 0x3cb9c64f3d6a41baU,
  0x3cd5e344bdf930a4U, 0x3d6b9e0dbcd6daffU, 0x3d55ed6fbc246fdcU, 0x3d89227abd6de8f1U,
  0x3c1d48063d989734U, 0x3e176d603e243b83U, 0x3c8ec9e63d3a39fbU, 0x3ceccaa5bc2322deU,
  0x3dff44d93e1d715fU, 0xbd4000c43ca17a4eU, 0x3caae16e3e120290U, 0xbde17e523caf99a7U,
  0x3c5574b1bd8a5d6fU, 0xbe1ccc8d3dca04deU, 0x3d9887b7bc885b27U, 0xbd7f3f50bc78a4aaU,
  0x3d2d485a3d8b0b56U, 0x3d8840833c32a3caU, 0x3e13e6d23c685638U, 0xbe003df43d0a2129U,
  0x3e31b2fabd534a2eU, 0xbcd6e38dbe5d37c7U, 0x3cd610b1bdf0b22dU, 0x3d52b40c3c8190f3U,
  0xbde0ad013d6a3545U, 0xbe002388bca356f3U, 0xbda812e73cf1a61eU, 0xbd2fb6463c419bb8U,
  0xbcdd7d5abcd177ecU, 0xbdbb924dbd19a9feU, 0x3d861bb3bdffa290U, 0x3e97d01b3c5c2ef8U,
  0x3ded2bf03c299a1cU, 0xbdb02143be34eaefU, 0x3bafde84be4de07dU, 0x3d532c8b3dc4ae0aU,
  0xbd3a345cbe0db196U, 0x3e12db2e3d5eb803U, 0x3d922b10bbd59f2fU, 0xbd26eee33d428659U,
  0x3a4819e43dd4f13bU, 0x3d929dfd3e2b8afeU, 0x3c055c4f3e10d279U, 0xbe12d9e63d9931b3U,
  0xbe0783d83a9049c7U, 0xbdc16c4abd878ab8U, 0xbca443503c2ad86fU, 0xbdcf0fcdbdb1bbf0U,
  0xbd5b60c9bdca39a2U, 0xbe36b023bdbb7ab4U, 0x3d29c313bc3f5c18U, 0xbe31b019bd75af7bU,
  0x3d0f35023d77c358U, 0x3d090438bd8a8f8bU, 0xbbf277ffbbf9e196U, 0x3ddb756c3d2091c6U,
  0xbd3499bebde5c63dU, 0x3cc8daf33d1fadf8U, 0x3dce30143e06c0f2U, 0x3db7420fbd04af6bU,
  0xbe053615bd25fe5bU, 0x3d8870f43ddefbafU, 0xbe122edabc3988ffU, 0x3df079cf3cd18087U,
  0xbd2f0d3f3d959201U, 0x3ce1e6f0bd6b59c1U, 0x3dd6b611bdb0a7d0U, 0x3d6ab11e3d149d6bU,
  0x3d07dd8fbc9473a6U, 0x3db95af1bd5fd208U, 0xbdd7f4f13d60c15dU, 0xbe0776cbbddcb693U,
  0xbc8921ac3dd407d4U, 0xbd88d3553c591a8cU, 0x3c91fc393e1b3453U, 0xbdc0459d3d853c58U,
  0x3d10bc04be401c19U, 0x3e14e99cbd8422d9U, 0xba976a85be3a7824U, 0x3d77a4c4bd48e25dU,
  0xba75fc3e3d8dabd7U, 0x3d9c2f6abc04ccbdU, 0x3c9f3543bdfc6ba7U, 0xbdcf586f3c966e7cU,
  0x3e2ab855bc9ec0b1U, 0xbd1894f5bd67d733U, 0x3d96c65b3ba99d25U, 0x3d6ba3d73d8706e1U,
  0x3cef8ff0bd1342a7U, 0xbe31b0ebbe068de2U, 0x3d9820eabb6e5c9fU, 0xbd9cc216bdeb215dU,
  0x3d48f130be05a5cbU, 0x3d728a6b3de246c4U, 0x3e23dbe73e1dbc07U, 0x3db32eedbe150764U,
  0x3d6860aa3d46fb1eU, 0xbdad132fbc4e63ddU, 0x3a449bf9bb9b90bdU, 0x3d54e7573d8ee07eU,
  0x3cbb7b213bd11c54U, 0x3d5cf3cdbd797948U, 0x3d5fe0cd3cca0ccaU, 0xbe23707f3db6c57dU,
  0x3d846856bbfc51f0U, 0x3dc6d8f13d7dcc7aU, 0x3d9897993d6f5f94U, 0xbc60c5ef3dbb4488U,
  0xbcf82bf1bcb4d449U, 0x3d2f19bb3dcb8f22U, 0x3d7678f4bd7ff772U, 0xbcf61a51bc18fcabU,
  0xbd9ab4bdbbabdbf1U, 0xbd45b57fba8c6580U, 0x3c3d27ab3d89b3c5U, 0xbd4045413dcd515aU,
  0x3d8d9ac5bd2c9e2fU, 0x3d287396bc04baafU, 0x3dc3895abd740439U, 0x3d6a8ff83d88f13cU,
  0xbcabd230bcfadb10U, 0x3d824bfe3c56b966U, 0x3cd0a0343d46aba1U, 0x3d7682e13d30248fU,
  0xbc93a29f3cfcfd17U, 0x3d3e74623d9a9dfeU, 0xbd9b4f1c3d1bfd4eU, 0x3c8d6e173ccc70ddU,
  0x3d609d6bbce02dacU, 0x3d99cfecbd3c8f2eU, 0x3dc6b0cebca9ea60U, 0xbd71d0483ad49a4aU,
  0x3d74cf683cb55442U, 0x3d8cd90abba72f19U, 0x3c86418abc958463U, 0xbb838ae9bcc30bdaU,
  0xbd1e592f3d05ba88U, 0xbbd95740bd6a473aU, 0xbcd63e1bbd9a922dU, 0x3e3e166e3da4456eU,
  0x3dd4e2733da71923U, 0x3dfa543abd1cd648U, 0x3ddbb4cf3e2105abU, 0xbcd5fc013bf8e6c6U,
  0x3b6a481c3cadd667U, 0x3dfb08873de4d4bfU, 0xbcc757e2bd4120d3U, 0x3d65fbc23dd928a8U,
  0xbd95fa603d43c2dcU, 0x3c5953ab3e259c94U, 0xbda475debda7a3bbU, 0xbd0131e73dae72a3U,
  0x3d8b0b713d170a3fU, 0x3e144f4a3da18e40U, 0xbdac3ca83da644e9U, 0x3c0596c1bc3a47e9U,
  0x3e17522f3d95c683U, 0xbd2ec6c03caf4365U, 0x3e139ac7bd6f8811U, 0xbe3d503f3da6470fU,
  0x3cac0af23d903647U, 0x3dac7f263dd62b0dU, 0xbddce33b3d6f56d4U, 0x3c052a53bbe8f718U,
  0xbbbb499a3cd8e686U, 0x3c18b13ebcdab8f5U, 0xbc1bd77ebc9f119fU, 0x3de84655bc6141aaU,
  0xbd65450b3e173fd0U, 0xbdc0056d3d8adfebU, 0x3da358a83d68d454U, 0xbe258ad7bd47d23cU,
  0xbdbb1d08bd89ef67U, 0xbd332d43bda5cb4cU, 0xbc2d06d6bdde93abU, 0x3e061e713d832709U,
  0xbd93296e3ceb55c3U, 0xbdc9dcddbc41e017U, 0x3e0ac7cbbd1c140eU, 0xbbc4522dbe0391ecU,
  0x3d1fb2663dfa532fU, 0xbc81243fbe4c8714U, 0x3cb1865d3e0ed142U, 0x3d98ee97bde869b7U,
  0xbda4bcedbdf76a83U, 0xbce57da6be054d4bU, 0xbdafae153d7f3f6cU, 0xbdd2926ebdd4be50U,
  0x3d3fd0e63c4aed59U, 0xbd0ceb5c3ccfe7a3U, 0x3c8fb2e83ccf47b9U, 0x3dc265f9bce489baU,
  0x3c06ebc43cb32a21U, 0xbd2fc4f5be205134U, 0xbc805756be4c42b7U, 0x3e01a7473d87c180U,
  0xbd8b5867bc3dfb48U, 0x3da62bcabdabfa6fU, 0xbdcb2671bc1dbfb0U, 0xbdf8fe71bdbd4738U,
  0xbd21f7cabd247319U, 0xbe0666b53e2135cbU, 0xbd46efd8badf7149U, 0xbd659b11bd756fe1U,
  0xbda15237bd2fb4a7U, 0xbd8ce90c3ca59a4dU, 0x3e55bfba3ced3c62U, 0xbdf14b813b9f9ea0U,
  0xbd37a849bdaf34a0U, 0xbd3ce9f83d027529U, 0xbd2a1e75bd1d0ce2U, 0x3e10170abdb03f76U,
  0x3d47c6e6bde1d6d6U, 0x3c1227cebc113d24U, 0xbb0f41173ca5e582U, 0x3d0aa01bbd5f9013U,
  0xbd02bb1e3b6f5d03U, 0xbbf331983d8b759dU, 0xbd7011393b61f257U, 0xbcc40fe43b971afdU,
  0xbcaef09ebda85c30U, 0xbcf84066bdb81266U, 0xbda6fb83bda1edc7U, 0xbd8ad5e13d7819c7U,
  0xbcbca49d3e382342U, 0xbdb9940ebd62bfddU, 0xbd5a8cf1bc3b5171U, 0x3cdb645ebd1a5387U,
  0xbd4a6b0fbdb32ef8U, 0x3b0b2b04bda7b958U, 0x3c8eeede3c641313U, 0x3d83c8293ddf8d33U,
  0x3dab14b23ccc028cU, 0x3e01e1ac3cdb348eU, 0x3d95bfe73e128f69U, 0xbe2839c8bd0a8907U,
  0xbcd6a139bdcd35bcU, 0xbc6cf2253cfbfd04U, 0x3e03e1f4bdbee6e7U, 0x3dec46f2bd9cef6fU,
  0xbdd1e8383d4f9227U, 0xbbaefb0bbd8a8ffbU, 0x3dded36c3db4f155U, 0xbdfd0e923e1508f7U,
  0xbc8a054f3b07f465U, 0x3d36bdefbe02da36U, 0x3d136a87be126a76U, 0x3e1ec005bd6b9a79U,
  0xbd03fc0ebdb38216U, 0x3c5d017f3b2b1fbbU, 0x3dd671e63db07e56U, 0xbdb441e6bda1ff97U,
  0xbda9e958bc26112bU, 0xbc7be671bcb90fd0U, 0xbdbd4d5b3db06226U, 0x3c1f45ea3bebc266U,
  0x3e0c0ba6be0c8c5fU, 0xbcd1c621bd9cd84dU, 0x3d432a69bdc64057U, 0x3d566c9cbd2584a6U,
  0x3d09f8833cde9e7cU, 0x3df397f3b99280a2U, 0xbdb22fa63c8e6fcdU, 0xbd5cd96cbda7ac80U,
  0x3b1b4b07bbeeb350U, 0x3c5e58a8bab184d7U, 0x3e19efff3dc12438U, 0x3dba8a783e287d82U,
  0xbd94f534bd015619U, 0x3cf781b43e0e44feU, 0x3da5fce7ba978919U, 0x3d0168db3d9e7e6dU,
  0xbd64f468bb383d6dU, 0xb9df88d2bcb51b57U, 0x3ddadd5d3c9b37f6U, 0xbe1822d43c9bd450U,
  0x3e13f48bbdae4733U, 0x3e023a32bd8dc770U, 0xbcadbef7bd914e95U, 0x3d1b4b3a3dc9f68fU,
  0x3ced20323da09f3cU, 0x3de51fe7396eca3bU, 0x3d7194aabe09db15U, 0x3e1b3f943b70dcc6U,
  0xbda3301fbd27f7f7U, 0x3e39f7e83cd0db53U, 0xbddde2703d0c121cU, 0x3de178b43c36aa0bU,
  0xbc41cd633c49acb1U, 0x3dd370dabcb479d4U, 0x3debea14bdd35712U, 0x3d82250abe1677c5U,
  0xbcfb322f3d802b89U, 0x3e4a59dd3d8b31f9U, 0x3d2feb073e10d005U, 0xbda90c48be0bc7d0U,
  0x3bf0965b3e01ee5aU, 0xbce638763c3ee36fU, 0xbd9fac45bdb954ccU, 0x3cd07cba3d91ac9bU,
  0x3e2a60343d166655U, 0x3d5f46dfbd0fc7d4U, 0x3a303c583580b300U, 0xbd0d48ffbc8cceb9U,
  0x3e1ae7323d066458U, 0xbd3ca7c33d061cacU, 0x3da85e79bdd9bc68U, 0xbccc574b3d29c81aU,
  0x3d3e95a93d8373feU, 0x3d3e99473cbe6503U, 0xbdf89c7a3de93b25U, 0xbd113b38bdc73c09U,
  0xbc9c3209bb13caacU, 0xbd9bd954bd7ee794U, 0xbc89e879bc534938U, 0xbd28542cbd43b996U,
  0x3e0444efbd1a5d7fU, 0xbc450d54bcdea4ddU, 0x3dd73c01bc871e3dU, 0x3d989240bcf47042U,
  0xbd380ae9bd8199a5U, 0xbd4c93c03d59930cU, 0xbdbc6b3bbd36f740U, 0xbe0b86023d19d652U,
  0xbdb6e142bd1a3924U, 0x3df42b3a3d34b706U, 0xbce4ce9d3d83a50aU, 0xbd68c2a83d2bbc53U,
  0xbd59e0ee3db8d061U, 0x3e06b267bb463caeU, 0xbcf705b2bc94c1e7U, 0x3e3e4eb53d372c00U,
  0x3d8f3261bd70ab6cU, 0x3df782023d24d90cU, 0x3e0db5bb3d4afbebU, 0x3d12b341bd039d38U,
  0xbd46f200bcd08137U, 0x3e46ac43bd13f3c2U, 0xbd85e0003d19c724U, 0x3c12ca203d4f655fU,
  0xbe04836e3c3ebe60U, 0xbd7d1f9d3dd9cd62U, 0x3d82e4c43d4932e2U, 0x3de532853d31fc1bU,
  0x3dcb17053c5f802aU, 0x3e3827f43cbb1214U, 0xbdaf616cbd9d4fc9U, 0x3c8b02d93c974861U,
  0xbe16e477bd482015U, 0x3b60ac9b3d078557U, 0x3d98481b3d2f81aeU, 0xbe123681bd5dc4b9U,
  0xbd87d0b03bf8fa64U, 0x3e0668d33d4e7fc8U, 0x3d94ef9fbcdcd97bU, 0xbd4a13d9bd6ee8d7U,
  0xbd07d2993d68b701U, 0xbdd9b4b6bd632b5bU, 0x3db80a123ddf349fU, 0x3d14c4e2bd947d74U,
  0xbd8435703d1a1034U, 0xbd629993bd5648b6U, 0xbdbfd3a9bd81c705U, 0xbc99dd1a3de0e245U,
  0x3e852522bd980458U, 0x3d93586cbddf605aU, 0xbdb2bf52bd898f5aU, 0x3d067baf3d8a6e4bU,
  0x3db58ef33e5298fbU, 0x3dae5976bc83c580U, 0xbd0efb39bd7cd7e4U, 0x3d098ad9bc2f7f45U,
  0x3ded7ca93da2a2a0U, 0xbcb7dfe9bc2d6efaU, 0xbdc7cc723e22a186U, 0x3d1c66b2bdcc87d1U,
  0xbd933892bdb2366bU, 0x3cd2aa7fbde89a4eU, 0xbda06b3fbdb3b178U, 0xbdbac188bd8db0c9U,
  0xbb667a8ebd8653e3U, 0xbc1afd1abc3bfe7bU, 0x3d5bc780bc59122eU, 0x3c87ffe8bbb3da1aU,
  0xbdbefff53b5b955fU, 0xbc752b363c6e3c77U, 0xbd9e75a6bc83eab9U, 0xbe200fa7bd2b4d5fU,
  0xbd1c6fa33c57e969U, 0x3ddf51b53d1bbfd2U, 0x3c7730f23d144775U, 0xbda7dd233dbb2375U,
  0xbdf053ac3cbb40ceU, 0x3d9fed3c3e1f34d0U, 0xbd9b59e4bcd06e09U, 0xbe059fc4bdb8f46aU,
  0xbe1b2214bc978ca5U, 0xbd9a09dfbe07d213U, 0xbbe81bb93e1d5afbU, 0x3cf4e2fabd85cf69U,
  0x3dfdd856bc8ebb4eU, 0x3decfbc33cb63037U, 0xbd053f62ba903d48U, 0x3e430f763cb07e5bU,
  0xbd541a75bdd60fd7U, 0x3e01fb37bbb6edbdU, 0x3d619a8dbd50428dU, 0x3db033793d576c60U,
  0xbdca3906bddb68e9U, 0x3da2fa15bd913a72U, 0xbc931f813b178ee4U, 0x3d36284d3c654603U,
  0xbbb073dd3d97e338U, 0xbdd62830bd10f0b5U, 0xbd895ccebde71e51U, 0x3cb6482dbcf0e3bbU,
  0x3d46e8b7bd43a159U, 0xbddbf77c3e0af595U, 0x3d0de066b881fbe8U, 0x3e1bcd9e3de556f3U,
  0x3ca69329bd388beaU, 0xbd4ca9c1bdc296afU, 0x3c612058bdb8394bU, 0xbc527ed8bd8ed863U,
  0x3e0f85cb3e255e3cU, 0xbcff9cedbc81e23dU, 0x3da926dc3da2dbcfU, 0xbd4acf983dbd8aecU,
  0x3dab069c3d8f65e4U, 0xbb48c7343e43e84fU, 0x3dee9e68bd41d862U, 0xbc7635733dcbdd89U,
  0x3dfc5a07bd210805U, 0xbca83a5fbd8e002cU, 0x3d0bf60e3e28971dU, 0xbdcab7c93dc56425U,
  0x3c5e2dfc3c4d9a9dU, 0x3d99fd81be352f3dU, 0xbbb55d33be036a48U, 0xbdc1ac413ce11c34U,
  0x3db1b5793d8e392dU, 0x3e097c4d3d2ca256U, 0x3e1711e6bd8cb26eU, 0x3cf7277a3d4673bfU,
  0xbdeceee8bcdf2c21U, 0x3d9af9323e11cdd9U, 0x3c9968e6be549a20U, 0x3da67b53bdcc15a0U,
  0x3d9bec36bd9af626U, 0xbbb86c62bdcc6585U, 0xbceed7adbcc03093U, 0xbca64e38bdc60345U,
  0xbc5b1320bd944df0U, 0x3da1879e3dcaa6dbU, 0x3dd5bff93d2ce7f2U, 0xbd7c8ad43dbd1463U,
  0x3cd8cb0c3e75b937U, 0xbd653f1b3c5b1775U, 0x3e36a9c5be13b7d1U, 0x3e58d028bd8e18adU,
  0xbe05f81a3d251816U, 0x3e0093623e215777U, 0xbd2cdb403d23d375U, 0xbcf2b5f43e502fadU,
  0x3e6cf8e63c12868fU, 0xbddf14373bdce0a2U, 0x3e121649bdcadabfU, 0xbdbf5b103de3040cU,
  0xbdbd4d46bdb5e641U, 0xbd28c18c3d7c4a5aU, 0xbd800d4c3d4fefc1U, 0x3dd3754bbdbf1762U,
  0x3e86c12b3f11fb50U, 0xbca2ccc53c9e7495U, 0x3eb24eafbee829c0U, 0x3ead6b1fbd286928U,
  0xbe9e06ea3e6493dbU, 0x3e295461bd1104b2U, 0xbec4f88e3e076c82U, 0xbdbd0fb73db68e7eU,
  0x3e6f386bbe1aec53U, 0xbe2cc108bd4bb62aU, 0x3e807dadbe8f9cccU, 0xbf0ca0ed3e6838f1U,
  0xbea63300be970044U, 0x3e1542603e95eddfU, 0xbe00a4b43df32364U, 0x3eb58f15be9310fbU,
  0xbe3678d83e3372eaU, 0x3dada743bf05dcfeU, 0xbe46472dbe1b72c6U, 0xbde1e7933ebec2deU,
  0x3e9127d3bdc025b0U, 0xbe2649a43ba471a0U, 0xbe96f421bee2b2bfU, 0xbd94f6993d6f758cU,
  0xbdb14b99befb86d8U, 0xbe4c03c0bf19105aU, 0x3d13e7173e463679U, 0xbe3f14033eb261c1U,
  0xbe5fd683be880ba1U, 0x3e90c3093ced8c05U, 0x3e86eb623ec54b8fU, 0xbefb23923dba7b27U,
  0x3d0121be3d8bb0c5U, 0xbd9a0a003e4fc84aU, 0x3ea4f7b83e8d0e70U, 0xbecbc9693dc7e706U,
  0x3e523f5b3ee6ab84U, 0xbebe28c2beea75a0U, 0x3eb7da1d3edefeceU, 0xbee75feabd4d74f8U,
  0xbf0b606f3deb9efbU, 0x3d85e197be16d644U, 0xbc1bd9d8be67ea81U, 0xbeb445613e681d3dU,
  0xbed3566e3eb16326U, 0x3e419bd0beb76863U, 0xbe1caa0c3e956a62U, 0xbe2f75e13ec8a35cU,
  0xbeb0d2b13e8f203cU, 0x3ef5a71a3e914572U, 0xbd872a433d68f1bdU, 0x3e5133a2be9d71d0U,
  0xbe008361be854372U, 0xbe9618b8be93045eU, 0xbee8ed4fbd1cc0f6U, 0x3eff0755bef7e9c0U,
  0xbe6f18963e76d349U, 0x3f0148233e75bf96U, 0x3ead0b283e956114U, 0x3e3e2932be53326eU,
  0x3e86c8243cb96a6cU, 0xbd4ca5963ee770f7U, 0xbe3cbfb83e8f982dU, 0x3e7e63b33c297567U,
  0x3ed48eea3e814041U, 0x3ecde2db3d1cceefU, 0xbeabebb13d15ca51U, 0xbf1110723e656769U,
  0x3f0cf9c4be89d582U, 0x3d13ec27bf015015U, 0x3e7b18bfbebe8ff8U, 0xbcdcaaedbf04dc61U,
  0xbe464144beeccd48U, 0x3d41d4bd3dff1c71U, 0xbe0821f83ebe19e8U, 0x3ebeef79bd9554b3U,
  0xbe9f9026bde2e120U, 0x3ef4d1c6bdceaef2U, 0x3e9a9cffbf10c886U, 0x3d6cfffebeaf0be8U,
  0x3ce47b453e8029efU, 0xbdc5be93bd9e743bU, 0xbd916308U,
};


ai_handle g_machine_failure_weights_table[1 + 2] = {
  AI_HANDLE_PTR(AI_MAGIC_MARKER),
  AI_HANDLE_PTR(s_machine_failure_weights_array_u64),
  AI_HANDLE_PTR(AI_MAGIC_MARKER),
};

