/**
  ******************************************************************************
  * @file    networkmf_data_params.c
  * @author  AST Embedded Analytics Research Platform
  * @date    2025-03-23T15:37:40+0100
  * @brief   AI Tool Automatic Code Generator for Embedded NN computing
  ******************************************************************************
  * Copyright (c) 2025 STMicroelectronics.
  * All rights reserved.
  *
  * This software is licensed under terms that can be found in the LICENSE file
  * in the root directory of this software component.
  * If no LICENSE file comes with this software, it is provided AS-IS.
  ******************************************************************************
  */

#include "networkmf_data_params.h"


/**  Activations Section  ****************************************************/
ai_handle g_networkmf_activations_table[1 + 2] = {
  AI_HANDLE_PTR(AI_MAGIC_MARKER),
  AI_HANDLE_PTR(NULL),
  AI_HANDLE_PTR(AI_MAGIC_MARKER),
};




/**  Weights Section  ********************************************************/
AI_ALIGNED(32)
const ai_u64 s_networkmf_weights_array_u64[1411] = {
  0xbf003e983ee9ae32U, 0x3eadc04bbe262a26U, 0xbeb890e6c0073fa4U, 0xbec2de033fb2c2b8U,
  0x3fa1cfbcc03c9345U, 0xc097b666c0222bf2U, 0xbf5610f83ed30806U, 0xbfaa8155c00be219U,
  0xbfeeece03f8647bfU, 0xc00a6e5f3f8d8a86U, 0xbe3a1aacbfec5bdfU, 0xbfd7d60bc00aa3a6U,
  0xbf42efe63fac088cU, 0x3fd8a093bfc7e0dbU, 0xbf12700b3fde9c08U, 0x3f01c378be0c6968U,
  0x3f8f88babfa0e34aU, 0xbf83258dbe1c6198U, 0x3eb240f4404b1b40U, 0xbed4e0533d88fc96U,
  0x3fad23f7bfe3cfacU, 0xbe626dfcbe016335U, 0x3e03c96940315aceU, 0xbf3a13dabc977580U,
  0x3df581833f18f567U, 0xbfd6af3ec00e10d2U, 0xbe88aada3f9be1d3U, 0xbf9083533c3bb6c0U,
  0xbe6d79f93f7f3410U, 0xc028b019402d4697U, 0xbf9825533fcf1d60U, 0xbff14009bfc34880U,
  0x40417cd3c049930dU, 0x40268c8640280fafU, 0x4012fde94010412dU, 0x3fc8cb6c40016073U,
  0x405e98f2c052c224U, 0xbf840bdcbfbcc814U, 0x3f222d3d403810aaU, 0x3e5870433f1d06baU,
  0xc02466934017d908U, 0x40045bb9c048aaa0U, 0xbfdf8b023e1e1aebU, 0xbfe855f6bfced7baU,
  0x40938059c09bb060U, 0x40c50b4340d4a206U, 0x4029c7aabfbec7f6U, 0x401f49e3402f9dafU,
  0xbfaaf7e03fbfd3a5U, 0x4060916dbf9abe64U, 0xbf11d3573ef81723U, 0xbf88defbbf72f37eU,
  0x3f82a69dbfbdc2f6U, 0x4003b753bebe690cU, 0xbe41dd583f859106U, 0xc00008f1bfab5570U,
  0x4050f56ec059e88fU, 0x40cf9afa40ecaedfU, 0xbd478dbbbfdd80fdU, 0xbe8f41c8bedbf3acU,
  0x40d92c76c0b3e3ecU, 0xc0a0946fc0dada90U, 0xbe3db622bf696b6cU, 0x3d816614bf0f8c80U,
  0xbee86384be4e02d2U, 0xbf895e59c0115311U, 0x3fc05e413ef982edU, 0x3cf9d4113fcc7ab4U,
  0xbf8110b83f9f5314U, 0x3f3595fd3fcc80a7U, 0xbf8c8eefc00c07c3U, 0xbfddfd0cbda95a68U,
  0xbf1508463edd91c2U, 0xbf5c1d3fbfa17a2cU, 0x3e5ea7ffbed5e7e1U, 0xbfeb3e69be90dcbcU,
  0xc02f8bab4080a676U, 0xbeaba73fbff2e6abU, 0x3f8085e1bf7763a5U, 0x3f5ecac73f6cd114U,
  0xbe9e7efabf3190cbU, 0xc06d24bc3e2bd745U, 0xbe5ea39340046a62U, 0x3f3498e03f25e117U,
  0x3f90b1f4bfce79f4U, 0x40f01b494110cf5fU, 0x40eddf4b3f5a4f87U, 0x40ed7c0540f76f5cU,
  0x3e0b8413be144050U, 0xbf73d1423f54fceaU, 0x3f5384fa3f0f96c7U, 0x3f862001bf25a7bbU,
  0x3f603ce4bf01b9b2U, 0xbf34c4de3e315f0dU, 0x3fda9ab640383d47U, 0x3f2d63c03fa64299U,
  0x4001e7a3c0615f0eU, 0x409954c33f00f9fdU, 0x3f9fdae73f4a506eU, 0x400f2ad9400a26fcU,
  0x3f947a0fbfbd9b15U, 0x3dd3b30d3f703745U, 0x3f803b6fbfc2ba2aU, 0x3f70e6b1bf27ad65U,
  0xbf09d0853fa5a714U, 0xbf9a2e22bedb427eU, 0xbeb9901cbfb17b66U, 0x3e6951d53fc1160eU,
  0x3f495d55bf3abd9eU, 0x400d87b1bf845b71U, 0x3fcdf72c3f869968U, 0x3eec77353fbe1e5eU,
  0xc029fca240847b9dU, 0xc08cb4dcc0badf96U, 0x3e9d7459bebeb2a6U, 0x3f8037c73f4bd8c4U,
  0x3f4350d4bf59c904U, 0x40b09c0e4056e91bU, 0x3d7a9c203f60381dU, 0x3ee48b1f3ead65e3U,
  0xbe4df0263fc763d3U, 0x3f990d973f784d29U, 0xbfadfcde3ee15affU, 0x3fabbc353f1d8f00U,
  0x3f335fcbbedb889aU, 0xbd1b74b8bf1c097bU, 0x3f09127dbd73b53cU, 0xbf8d98fdbffacdabU,
  0xbebcf707bf875bb4U, 0xbe8340fe3f697cc0U, 0x3ed348523f82d990U, 0x3f7efcf7bf305f2fU,
  0x3ffaa16fc002083eU, 0xc004dc5ebede3da2U, 0x4031298d4037269cU, 0x400a168d4038a773U,
  0xc0061fc0402b0dc8U, 0x3e9b6dc1c0519139U, 0x3d8ef9ba3e7b9ef1U, 0x3db8b5cfbf671c7cU,
  0x3fb66677bf98a181U, 0x3d7a0f7abf5d3b5eU, 0xbf9160c43fd3d2b0U, 0xbf8966ddbdbdb5f9U,
  0x3ea409163f3cd115U, 0xbf5b8f113eb5f2e4U, 0x3eafa4533fc8bdfeU, 0x3fbe6b1c3db8b948U,
  0x3f613bf3be05ecaeU, 0x3fec25dc3e68b133U, 0x3f2f6c2ebeb80a39U, 0xbee02ffd3f6cae65U,
  0xbeefd3d0bff326acU, 0xbf623579bd6d4c9aU, 0x3e97b806be9fc65bU, 0xbe8a52b8bfc977f9U,
  0xbfacdec73f32b719U, 0xbf0d847b407777edU, 0xc0274f16bfc7ea68U, 0xc03d58dfc0485e56U,
  0xbf63323d3f65f5f8U, 0x3f22a8803db6d589U, 0xbf1f4a4ac00ea824U, 0xbe12ec423face4deU,
  0xbf11f944bf24239bU, 0x3f905a033ff5a1eaU, 0xbfef8fe84052db2cU, 0xc012344bc007e057U,
  0x3d098fc03ef1dfeeU, 0xc00c0e213ee6e8afU, 0x3fd79e5a3e5712fbU, 0xbde0ac0a3f98a4d4U,
  0xbf78c1a93f2bac0cU, 0xbf9e8e863eb723caU, 0xbe0ca93e3e726208U, 0xbeff33c93f8bc234U,
  0xbf27fb2ac00cdce8U, 0xbe7957973ebb6ee1U, 0x3e5fa40f3ece5404U, 0x3dfbdb76bf8d6030U,
  0x3e994002bec7fdc0U, 0x3e490a58404e4c1dU, 0x3f90be17c00214a6U, 0x3f82a079beeb54b6U,
  0xbbaf2c4fbf321139U, 0x3f89cb81be934beeU, 0xbdf13badbf65258dU, 0x3eb6383abfc439e7U,
  0x3cf110523d38e530U, 0xc0a3cd6bc0d389aaU, 0x3f45215dbfc72964U, 0x3f927374bdf68e7dU,
  0x3e1e78b33f02c0c3U, 0xc0109ee8402e1d45U, 0x3d3c73873f5ea8f6U, 0x3fc3cbe23fdb9c24U,
  0x401fac46bfc7be10U, 0xc098d7d8c06e02d6U, 0xbf5141383ffd104fU, 0xbf9c4af6bfff3a30U,
  0x3f02debdbfe00101U, 0xbf27db904081cf30U, 0x3f2caaed3f6a6676U, 0x3f527d543ec26384U,
  0xc06120cd4074ba50U, 0x4088d52d4041eae4U, 0xc0655b19bfd27539U, 0xc0665cd1c0855fddU,
  0xbff990473fd8b5edU, 0x3f348a70bfc78925U, 0x3ee360463ff02597U, 0xbf2eb90dbf0777c5U,
  0xbe3258553f90a33cU, 0x40563b073e8665e2U, 0x3e13bebec025685cU, 0xbf8b3d16bf9a31aaU,
  0xbf2e22d63fb0dd2eU, 0x3f38ef983f8de5fbU, 0x3f3eae0bbfcfca76U, 0xbf8d8f0a3eeb7626U,
  0xbf1bcff23f002655U, 0x4033f7e53f0cbe65U, 0xbec9aaf23eea3787U, 0x400b411a3fe3b9a6U,
  0x40a49906c0887d91U, 0x40e50509410a1d62U, 0xc02c368f3f3e41a5U, 0xc0166879c0286678U,
  0x3f8b12eabf437927U, 0xc0217b59402579faU, 0x3f531b3d3c2334f6U, 0x3f83d6a4400cf9fbU,
  0x402c5f63c0934e28U, 0x3f803188bf4ea7d8U, 0xbf4dce19bfe74953U, 0xbf60dc9dbfb66e60U,
  0x3fdb43a2c04167e8U, 0x4038c3cc3fb921aeU, 0x3f2aa3bebfceecaaU, 0x4047338b4010da95U,
  0xbe8127363f1f9319U, 0xbe434014bec2e0acU, 0x3fac448dbfd86affU, 0xbf227ad43f9879dbU,
  0xbf7dfd5cbe441c48U, 0x402393803fbe7f33U, 0x3fd11d8e40038da4U, 0x3ca059d53e921681U,
  0xbe4af414c00dabd9U, 0xbfe1d0643e8f9aaaU, 0x3ead4cd7bf869ee3U, 0xbfbc9e8abed5167fU,
  0x3e18d28cbf0a165dU, 0x3d8d9dad3e21d71bU, 0xbe500957bfb2189eU, 0xbf56c1673f70dadaU,
  0x40ba87223e856d73U, 0xbff1f030408e1d6dU, 0xbf805b08bf545ee0U, 0x3f86e0a53f618151U,
  0xbf9c69b1c0a46dfcU, 0xc0d048543f9c6911U, 0x3e20b01abf904a79U, 0x4097c8c9c07b286fU,
  0x3f81512b3e63633eU, 0xbf5ce6ac3ffae2dcU, 0xc1589dd13f759e00U, 0xc01c52033d878596U,
  0x3f3f700dc08681b4U, 0xc03d8f41bd4e7530U, 0xc0919ba540095a96U, 0x3fc4c06ac02602feU,
  0xc032e8103eb08416U, 0xbedf7dda3f0b95a6U, 0xc0048f5cbfce5e20U, 0x4065d0a2404da511U,
  0x3e203a6d3df4af7dU, 0x3e2b8528bea2fdf1U, 0x3e542e254010103cU, 0x409c4ecd3fa09a62U,
  0x40775550bfc3d892U, 0x3fc1a8aebf6af92dU, 0x3db60694be0ebf66U, 0xc06d8a62be3d97e2U,
  0xbf6735e2c0744701U, 0xc02fefcd4046f6dfU, 0xc02beae43e552d1dU, 0x3f299fb2406b4fd0U,
  0xbc32df1a3dede3fdU, 0x3c5cbce73de66123U, 0x3ba9fbe6bc0e6573U, 0x3d2646113c919d7bU,
  0x3d5552d1bc483868U, 0xbe013eecbd14a3f2U, 0xbc3a6443bcec8825U, 0x3def180abe0d1f42U,
  0xbb88e85c3e01ab1eU, 0x3e1c560e3dfcb328U, 0xbe7a98963da5d4d4U, 0xbd4cbe8fbc497b28U,
  0x3d071390be0f7edcU, 0xbd2ab1953db0836dU, 0x3d659bfc3def49c7U, 0x3d5850473c4d3001U,
  0x3d5766d73d166a33U, 0xbc9d53423e14f0cfU, 0xbd8de05bbce134b9U, 0xbda644e7bd97d445U,
  0xbdb7b2a6bd53e848U, 0x3d9892d1bb34432dU, 0xbc8f86d1bd0ba4aeU, 0x3e3a25eabdb1739dU,
  0x3d9f6132bcd27943U, 0x3dab4f78bda62a3aU, 0x3dc1bdf53debe31dU, 0xbd366cfa3e10264dU,
  0xbb31c766be6dfa2aU, 0x3caa3ef93c1811c4U, 0xbd927d443d80df25U, 0x3da39ed03c952d09U,
  0xbdf142233d914607U, 0xbdb184843ddfee6dU, 0xbe2ab1b13d6c9012U, 0x3c320e86bddd5c8aU,
  0xbe2e4cfdbe058c69U, 0x3e05c0a73d185969U, 0xbc9da6b83dfa62eeU, 0xbe5798623e580a14U,
  0xbc0892b7bdf22addU, 0xbc1d4d17bc061e2cU, 0x3e444e97be053028U, 0xbd94fef0bd74a8c6U,
  0x3d3f9470bcb2dcf9U, 0x3d869b2abd87267eU, 0x3e0d4e6d3e022679U, 0x3cac1c573e2d2ec1U,
  0xbd470a033d10f25fU, 0xbe1c133c3de5a147U, 0x3c0ab943bdaf31dbU, 0x3e054234bd9e45f7U,
  0xbd10e8093e06a322U, 0x3d5c0fbcbd19624bU, 0x3d6f16f43cc6b8abU, 0xbd7d4bcd3d89bc77U,
  0xbe08ae7c3e262f7dU, 0x3d56d4da3dcdf774U, 0xbc5436363b98ca11U, 0x3dc52da03db54d0fU,
  0x3e2d662f3d9a91aeU, 0x3c77c456bd8d4355U, 0xbd5988853d4e039aU, 0x3d25d409bdcf4b35U,
  0x3e16f565bd1640c0U, 0xbbeb8c8d3be94fb7U, 0x3b75c6e6bd80e735U, 0x3d96a6be3dc4e9beU,
  0xbc607dbf3c665533U, 0x3ded9d77be2ac8e2U, 0x3bb00955bdbe5095U, 0x3e502b983d42e6c5U,
  0xbdc0dc63bd671444U, 0xbc0bb3b43d7c9f76U, 0x3a98c2ca3dc2e0ecU, 0xbd335f1e3d33de7aU,
  0x3e028d763de01c8dU, 0x3ca53d313d36d081U, 0xbca68a3e3d57e42cU, 0x3d1d103c3d058da2U,
  0x3de6818a3d14e5caU, 0xbd57d780bd907e22U, 0x3da5b0103d175d95U, 0xbac3a6de3d8ef23fU,
  0xbd94280f3c95e880U, 0x3da1559a3d7c83e5U, 0x3daad8d53d853c52U, 0x3dd7df0b3ca2a597U,
  0x3d7bf2f73d00c99eU, 0xbd8405cf3da1012bU, 0xbcf2fba0bdc96a47U, 0x3d178c153d238a68U,
  0x3e50d4c13d45ea5aU, 0x3d974f7b3d802089U, 0xbcb69dcb3d8d95f9U, 0x3dffde233e077b06U,
  0x3dc0208bbe186292U, 0x3dce6493bd5e9477U, 0xbd249c1e3e3b1f28U, 0x3d687be23d5d22b1U,
  0x3dd799523de2c0e4U, 0x3d934879bda4a510U, 0x3b6fea743d379594U, 0xbe0209f93d81370eU,
  0x3c26155abbfe640fU, 0xbc89e043bc9f8472U, 0x3d9cccfdba7cd091U, 0x3ddd2b143b9dd60aU,
  0x3bd4f4fc3d52f956U, 0xbd3268f0bc8dd365U, 0x3da207fa3cfc9f2eU, 0xbd6e0aa2bd016289U,
  0x3c98928e3db93e99U, 0xbd6d75c6bd8e4edeU, 0x3cefb174bd1c7f7dU, 0xbd1554a63ceea3daU,
  0x3d3cfb24bc91c8cbU, 0x3cf376eebcfc006eU, 0x3d2f93633d2b7138U, 0xbe0f9346bde5cf19U,
  0x3d842db93e0c5af0U, 0xbdead12d3dcbb28cU, 0xbd8fe75f3d2d435eU, 0xbd6e44a6bda9c9d2U,
  0x3ded73023d66ffe8U, 0xbbf3be2fbc49e208U, 0x3df21b86ba38f2fcU, 0xbd175088bbb79b19U,
  0xbe215c4b3cb1b2ebU, 0x3de14f10bdb6300bU, 0xbd802dcfbda4b398U, 0xbdbeac033c4c784eU,
  0xbde78b8dbcb9b0a0U, 0xbd96f8913e295c67U, 0xbced61ef3e251339U, 0xbe7c7b0cbb130672U,
  0x3d72b53dbd959100U, 0x3db4df0dbbeddfb1U, 0x3deb81d0bd903005U, 0x3cfc13e83ca4738aU,
  0xbdd60646bbdde86aU, 0x3e0908923d879d80U, 0x3dd73e98bdaafc2dU, 0xbcbb27d7bccfc496U,
  0xba35f2703d6d025cU, 0xbd42b5b9bc92fcb2U, 0x3d287defbbf45c67U, 0xbbbd61a1bd2173adU,
  0xbdc26bf33c48759eU, 0xbdd5b7d3bc4fd3eaU, 0x3c26017abd209ab0U, 0xbd33bd033ca61aacU,
  0xbe22cf14bd8f7479U, 0x3dc70f62bc7d9e38U, 0x3e2287623e081d92U, 0x3e05cf293caa84b5U,
  0xbd45943ebd20e6b7U, 0x3c99c103bdc7d9d5U, 0x3d75e74b3c8b9f4fU, 0xbd970033bddac3b3U,
  0xbc323b3ebdc38300U, 0x3d6370a9be00ee7fU, 0x3c901cb13e2a276cU, 0xbd6ff91f3e02b609U,
  0x3e1b90013c1e02e0U, 0x3c61fc5f3d606404U, 0xbd16b8b2bd0c296dU, 0x3dbed9d3bd9c7223U,
  0xbdfe5eea3e0d5a40U, 0xbcdfd63e3d34b66dU, 0x3da0d9b43da54a1aU, 0x3c94e043bd4212e9U,
  0xbd610cc4bc5ff6afU, 0x3d22552cbdc3017dU, 0xbcd697f83da68eb5U, 0xbb966ae03ccee132U,
  0x3c64c068bd85f275U, 0x3e2ea5e03dcc188bU, 0x3d0ffa583d191388U, 0xbde57759bd3f1d7bU,
  0x3e2c6c48be0ac607U, 0x3d59c6813dd709faU, 0x3d32ef043d0a1a1fU, 0x3d745ca1bd3f8179U,
  0x3de4d5373c09a909U, 0xbe476594bd69ae9cU, 0xbdd808433e19e357U, 0x3d87f8e9bcdd465fU,
  0xbd8de5dd3c3baa58U, 0xbd2c3180bdb4f0feU, 0xbd59ba953d0b6de4U, 0x3d7232ca3d870c95U,
  0x3ca3e727bbcefa0bU, 0x3c21687d3c21e976U, 0x3d4c79f83d6ee50fU, 0x3d9c43653db558dfU,
  0x3d2ca2fd3d571e75U, 0xbcc47aedbd90acd4U, 0x3c74f45cbdb43cafU, 0x3ded189dbcad4eaaU,
  0xbd292deb3d4d3671U, 0xbd2341a5bad8a5e6U, 0xbcf3a6b6bbbd31d3U, 0x3d3f88f23d1b29fbU,
  0x3d8840f93c75135eU, 0xbd5229e63d18b7a8U, 0x3beb33b6bb68ef8cU, 0x3d18b5253d4c9ba4U,
  0x3a2dca563d21c35cU, 0x3d4f7b7dbcd50ed7U, 0xbd17a8eb3d2e2238U, 0xbb9a6b9f3c93baa4U,
  0x3da5f6993ceb4a29U, 0x3caa71c03db64332U, 0xbd371b2f3d2bfc05U, 0x3d1007413c9a7366U,
  0x3d075d50bb662424U, 0xbdc5aa1a3cae0bdfU, 0x3bf108223d4f3bb4U, 0xbc456caabcc43ca8U,
  0x3d6b916f3aaf1037U, 0x3c5e5abe3bdabd25U, 0xbcf5ae153c313203U, 0x3c59f83e3ccbed3aU,
  0x3d416313bd435a91U, 0xbd7c9332bd5deb02U, 0x3dcf60de3dadc9f1U, 0x3d32ca883de25402U,
  0xbd7107f83d6f4741U, 0xbdc81b87bd86392fU, 0xbd42d102bd357c19U, 0x3d911516bc9195a0U,
  0xbd0039653cef0403U, 0x3cef7f133ce69d1bU, 0xbe11c5f6bc8d6a94U, 0xbcc4603fbced158fU,
  0x3d675976bdb99992U, 0xbdc14775bbcd1f88U, 0xbce6c68bbc90a4aaU, 0x3d83077d3db519afU,
  0xbbe0500f3d192293U, 0x3dd685343d4c38fbU, 0xbd7863973d6aa3c9U, 0x3bc18e6d3dc9f0a7U,
  0x3d8b03f8bd387564U, 0x3beb02523decb52dU, 0xbdbd50a33cc8e7ffU, 0x3da5d06dbcaf9057U,
  0x3d83b07c3de327c5U, 0xbd974edb3dcbc751U, 0xbd5efa703d9ef49fU, 0xbd7fb622bc8cbb92U,
  0x3dd3c1abbe108596U, 0xbb847484bc578867U, 0x3b42ac2dbd14d255U, 0xbc6425bc3cf6edd9U,
  0xbd8fc36cbdc71de8U, 0x3d3f43a9bcaf4f7aU, 0x3da2e3cd3d9b2d9fU, 0x3d9245de3d47a7aaU,
  0x3dcc5eb13db5fbf0U, 0xbddcfd623d9b9913U, 0xbc8b19143dd82f81U, 0xbd95c290bdf06597U,
  0xbc8b2519bb8ed2c2U, 0xbd48a68e3cd885e9U, 0x3d8abb5abd71f475U, 0x3d1d34f23b31ce98U,
  0xbd1bd99e3df4bf30U, 0x3dcfbc0abda871c3U, 0x3da09ec5bc22a7a4U, 0xbd2662613d01f939U,
  0x3d74d51fbd168744U, 0x3c5d40c8bd67bdcdU, 0xbc1011403c9c2f31U, 0xbd137ccbbdada3ebU,
  0x3dd4cf95be0ecdc1U, 0xbc346176bd1b9673U, 0xbde9e9dbbd330f47U, 0xbdc08cb3bdd8d433U,
  0xbd4ddf98bccdb71dU, 0xbddc0e78bd67a25cU, 0xbd7911163d972e18U, 0x3c3f5b49bc87ad16U,
  0xbd05d666bd6cb6e9U, 0xbda8d19bbd8cf089U, 0x3dda82d3bdd3a8e2U, 0xbd2c1c98bdfe7e7aU,
  0xbdf4f3c1bd91cc7aU, 0x3d21c319bcb3a97bU, 0xbd79301a3d0db963U, 0xbe0a3b6b3d994a44U,
  0xbdd35e52bd63d2dbU, 0xbe4df1e73d971efaU, 0x3b0132723e24ee56U, 0xbda5d833be1cee1eU,
  0xbd4941af3d80a5ccU, 0x3d9f2a193daf128fU, 0xbdea79f6bd997808U, 0xbda0e17abd0c9ddfU,
  0xbd9a7ceb3d0215f9U, 0x3cf9aac8bc9df726U, 0xbda0bd743dbdc751U, 0xbd7916d63dae3eefU,
  0xbded5d9cbd6f3ea7U, 0xbc849d3e3e2f3dd3U, 0x3ce997793d269bcaU, 0xbdbdf928bd8414eaU,
  0x3d8837f8bc088846U, 0x3d0d488d3d103b0dU, 0xbd9a2f9bbd34b35dU, 0x3d389457bdb10490U,
  0x3c87d641be043321U, 0x3d348623bd7735b2U, 0x3d7b5aa0bc3b9f18U, 0x3d91b149ba02676aU,
  0xbe48ce2ebe240e6cU, 0xbdfb46ebbde44823U, 0x3d71b1673db0372cU, 0xbd16f10abd32bd64U,
  0xbd7ca0dc3d125e1cU, 0xbcfa24523e22db05U, 0xbdc7e089bd6481baU, 0xbd303ac1bc850519U,
  0x3d642bb9bcafa5aeU, 0x3e59ea9c3da08e79U, 0xbd93f784bdc14529U, 0x3da704bd3da88756U,
  0x3e3f9c943decf062U, 0x3d84979d3d658272U, 0x3e30ea1ebd93156bU, 0xbdc0e0febce95993U,
  0x3e127ed23d713592U, 0xbd0f31c73d7f940cU, 0x3a84c7523daeb6d5U, 0x3d9f56423e0a3962U,
  0xbe0479a33dbcec16U, 0xbbfc7a78bdc1e304U, 0xbb851427bc72fdbaU, 0x3dd678843b730b74U,
  0xbd58ec0a3e184658U, 0xbcb2dacfbb92f4a6U, 0x3e09667e3e2ed581U, 0x3d3ce9dd3e0b8dbaU,
  0xbd2cca303e1a6915U, 0x3d10bb873a01245bU, 0x3dc43bc5bc60e93cU, 0x3d25225e3e1d0155U,
  0x3e02e66d3e07868bU, 0x3d8666dd3da9c986U, 0x3b41c0783cbb833dU, 0x3db5ed463db7efe9U,
  0x3c2fa0a83e27f616U, 0xbd59a3673cae3776U, 0xbe00d93fbd160c60U, 0xbdd5deb53d117f95U,
  0x3d73017abde1a6a4U, 0xbe4f6f3fbbff0f82U, 0xbd864d50bca8df0eU, 0x3e379b0ebd560a63U,
  0x3dad6e333d53d743U, 0xbce2f1b03da1f1edU, 0xbe5ed61bbbb9a1baU, 0xbbc25152bc71fe1dU,
  0x3c48acb9bd9b94efU, 0x3d46e5143e1f1be0U, 0xbe111b3c3e24cf61U, 0x3ce2599e3c1ce7ecU,
  0xbd724ee4bcfe17aeU, 0x3cc355903dfd7af7U, 0x3d4a443f3d993a92U, 0x3c54b5f83c7ef525U,
  0xbce6e6623e408c7aU, 0x3decceeb3cfb92e9U, 0xbbe3e6d73d0b5a86U, 0x3e573be23d996e5cU,
  0x3c34a1973d3b3e28U, 0x3d3d3839bd7acb4bU, 0x3d84cc073c355caeU, 0xbd9da6fb3d368695U,
  0xbc938d58be526bddU, 0xbd39bdfcbbaf43d7U, 0xbca4971a3d8f351fU, 0x3e0b9f77bd18039aU,
  0xbcba2193bd1063b3U, 0x3a2c48bebcd62e18U, 0xbd28e5a2bd26cbc1U, 0xbd012107bd03f890U,
  0xbcf458adbd33bf22U, 0xbdb0a72f3d2bc9c1U, 0x3cf34cef3ddb13e8U, 0xbd302c78bdc27ad2U,
  0x3d85a541bc69ed6fU, 0x3df536823c27e88bU, 0xbde2ecb1bd429dcfU, 0xbd2534783ba3a719U,
  0x3c937148bd3631f2U, 0x3c8da14c3d2f10d1U, 0x3d3c5c453dedf5b6U, 0x3d2872a83d2d306aU,
  0xbd3a974cbbb391f8U, 0xbd2bb8473d52bcdfU, 0xbc67624f3ca5f2d8U, 0xbce04c23bbf1a806U,
  0xbd2a817c3d97aedeU, 0xbb866bf6bd371087U, 0xbcbe90f3bcc2607bU, 0x3dbf5d70bd3e4a52U,
  0xbcc197b1bd899befU, 0x3dfdb5aebd836d3fU, 0x3c6d52c83d43c558U, 0x3a6be202bcd0eb70U,
  0xbd62dc5fbe1c1227U, 0xbd336bdabd87c662U, 0xbca8285d3d5aecd4U, 0xbd9bb7e9bd078413U,
  0x3d20d4c1bd60324fU, 0xbc57ca363ab4b160U, 0x3e09037c3e20cf8fU, 0x3dbff58ebd2db1f2U,
  0x3dc332fbbd73d9dbU, 0xbe45081abcbce0faU, 0xbdae25e2be2c3230U, 0x3e435c1abe251198U,
  0xbdca6e103e0b1449U, 0xbd808aa03da1a8e7U, 0xbe8bb3023d97abaeU, 0x3e2a72ba3d5c1240U,
  0xbcf01c1d3c399b18U, 0xbe03c906bbad5e88U, 0xbda63ea63e01b22cU, 0x3db1c0babd99d43fU,
  0x3e24968d3e1b65ceU, 0xbdc1b99c3d22cd82U, 0x3b3f6683bda8d155U, 0xbe041e2a3dcdd874U,
  0x3e12e6f4bd719de5U, 0xbd9f7681bd990ec5U, 0xbd22c738bdd0b1bcU, 0x3d07d4233d30b391U,
  0x3d6344203c74c061U, 0xbe1789f7be058693U, 0x3d46d947bd824601U, 0x3cc0a469bc069503U,
  0xbd0986ffbe1a482cU, 0xbd8d8120bd233cd4U, 0xbdd7a1dc3d44ff72U, 0xbd94008c3e0846d3U,
  0x3d9ee12ebcd5d058U, 0xbdb78f893d90d0faU, 0x3b87dfdebcb5e02bU, 0x3e2f3492bd279b99U,
  0x3d1e78efbdd8d8c5U, 0x3d18d9783ceeafdeU, 0xbbd068173d421cb6U, 0xbd07356ebc7a5308U,
  0xbcfeabfebd9a6f7fU, 0x3d5413713d3b2b94U, 0x3dd0708b3e0aa148U, 0x3dc9cd4cbcfda01bU,
  0xbcf444803a9da286U, 0xbda8a98abd4c3be6U, 0xbdd082cd3d473ab8U, 0xbdce5628bd9adf3eU,
  0x3e0aa5753df1c425U, 0xbdf216e63d97cb84U, 0x3cff4286bc38a5e6U, 0x3c0d8c17bd722d0cU,
  0x3d176e48bdd0d770U, 0x3e16848f3d4a5e1eU, 0xbd794262bc4af00bU, 0xbd36b58c3d47269aU,
  0xbc1a161c3e0c6b88U, 0x3c26c2253e46067cU, 0xbdd08463bb9476ffU, 0xbdd38c453b392e0cU,
  0x3d31d58fbdaf8051U, 0xbd8b9655bdc63f49U, 0x3c526043bdac3fdfU, 0x3ce0712a3d6639c8U,
  0x3de91b313a5a5ec7U, 0xbdb96d65bc87fa75U, 0xbdc8096dbd5eb949U, 0x3debfb3cbdafd0c9U,
  0x3d7418f43da431f2U, 0x3b8c8a6dbde34561U, 0x3d76fc4abc7f2237U, 0x3cf05482bc9eb0f3U,
  0x3a65f583bcf14acaU, 0xbd87929c3cad43eeU, 0x3da108683e2e59fbU, 0xbd9da9febcae0df3U,
  0x3d105fbdbd846ce5U, 0xbe04b2d1bd57ca55U, 0xbdf81896bde98b47U, 0x3d45d83bbd4d5969U,
  0x3d6a9b4dbd5f35e7U, 0xbd7c0316be00a742U, 0xbd6dc6113d7c2787U, 0x3d5c60afbcfb1bceU,
  0x3db4764d3c9c5da2U, 0x3cfd2c7a3cdb999bU, 0xbba49e6f3e16d890U, 0xbd234e76bca1fd88U,
  0x3d509b173cc5078cU, 0xbd7ef43d3e1b31f0U, 0x3d67e4933dd58321U, 0x3d4a2200bce27546U,
  0x3df78ad33defbe21U, 0xbbc24fcabd609abfU, 0x3b52536dbd68f76fU, 0x3a73c9b53df75a50U,
  0xbdd092823dc23b92U, 0x3d41a0523c734de3U, 0xbc54674a3bd9c233U, 0x3dcd7fb8bd19ab9eU,
  0xbdcb83f9bd1ebb50U, 0x3e15b1373d7d42ebU, 0x3c7dbccd3bebd2e2U, 0xbdc88c4b3dfb089fU,
  0x3dab60583d2bc46cU, 0xbc33e99d3c8bdf04U, 0x3d75ad7e3cfbe871U, 0x3d9aeba93cde8aebU,
  0x3d3324343e0479daU, 0xbc6bff4d3c1a6870U, 0x3d666514bd51c711U, 0x3b5c6fef3db41cc1U,
  0xbdcc95a93bb1ea0cU, 0xbcb043db3cd6fd7aU, 0xbc9c5bfebce56ffcU, 0x3d47a9083cdd855dU,
  0x3db26e0c3da71953U, 0x3daf80743b897b10U, 0x3df4069ebc1c9752U, 0xbd743d5e3d36bfecU,
  0xbd35f5f53c0a7ba8U, 0xbc3696cabbd3a409U, 0x3dee71bbbce7b4b3U, 0x3d3691fe3e00aeebU,
  0x3e0b91f63dc4c811U, 0x3d9e2cf7b9bfdd5eU, 0x3d7fa8a03ce1a03dU, 0x3db7b7593d8c39d3U,
  0xbc4010efbd74f862U, 0xbcc5b0d1bd281250U, 0x3e0c36583e2811d1U, 0xbc8a4cebbcb3cd84U,
  0x3d7b4f07be110fb7U, 0xbe27c666bdce1354U, 0xbd13a98c3cb197c8U, 0x3e0f8a84bde1492aU,
  0xbdaa101ebd960e7bU, 0x3c38eddb3cc92e4cU, 0xbe870d533e16a81cU, 0x3da7127b3df6ba2eU,
  0xbc575e5e3da07ee1U, 0x3dc634403d121f1dU, 0xbda5841d3e1f6acaU, 0xbb89d9a5bcc64511U,
  0xba3b3d31bd973138U, 0xbc28fdb73e3fc2efU, 0xbd0345283e11f4dfU, 0xbd71b15d3db68076U,
  0xbe120bbf3d954863U, 0x3d9698e1bd882ea7U, 0xbd4853413df7774aU, 0x3e4a873a3db6f5f8U,
  0x3e2862c23e108d55U, 0xbe0d5863bdc456d1U, 0x3d4eaa43bd9bfa71U, 0xbe026db83d070b82U,
  0x3dcd28e0bdc4e5e8U, 0x3d9473ca3e29e759U, 0xbd44e0ca3d6f17b6U, 0x3d6bc45a3dd5312fU,
  0x3e374703bcdc8f46U, 0xbd9531b53c8eb6eaU, 0x3d0b4585bd3d4b25U, 0x3e09cf7a3cbd8216U,
  0xbd1a1dedbd27ef06U, 0x3dd02ff1bd5c2419U, 0xbbfab3f0bd262165U, 0x3df3451e3d623dbfU,
  0x3dac49d33d54b474U, 0xbd825aa13dc7db61U, 0xbdf2c4df3b935270U, 0x3d03caf93d0f25d5U,
  0x3dbe31973da59fd0U, 0xbce1bd6e3e05864dU, 0xbdecda3abc986569U, 0xbd1182d93d24d4c7U,
  0x3d9483003dd8ca63U, 0xbd479434bd4d7fe5U, 0xbd8a8d263b8463ddU, 0x3ce6b7e23dee7d41U,
  0xbd73be12bd0fa51eU, 0x3d55e11b3e031400U, 0x3c2b6d87399bf5b9U, 0x3d121e403d26ace3U,
  0x3d6fe3643df742c9U, 0xbdc00bb53dba0147U, 0x3c657371bd8a8083U, 0xbd656e993d218dcfU,
  0x3e2a4e603b6d2c3eU, 0x3d61b79e3e05fcc4U, 0xbc646b3d3dc65da7U, 0x3da285cc3de94b39U,
  0xbd9b4ccbbdd70303U, 0xba5625f1bdc785b7U, 0x3d10ed353e300dbfU, 0xbc5849a63c5c2335U,
  0x3e23f1243dfd1670U, 0x3a944cc13e147576U, 0x3db9b5d5bd1eb132U, 0x3d626a12bd569b73U,
  0xbdc5a36c3d228cdfU, 0x3d726b35b94ca0bfU, 0x3c36c76bbdc1699aU, 0x3e32496d3d6223faU,
  0xbcf375e93d00d1d7U, 0x3e2b2c893d873605U, 0x3b7f3f7d3d90673dU, 0x3d16ac013d91b3abU,
  0x3d80f6d53d16b651U, 0xbd7e798fbdecb1c5U, 0x3ca153eb3dab9debU, 0xbd812b5ebe012e10U,
  0x3e28d23b3d1e5dffU, 0xbd9e69ffbdb2a3e4U, 0xbe23969e3dae2da7U, 0x3d4178fa3ce4dc67U,
  0x3d19bfeebd38ba5dU, 0xbe3dc90a3cd0ccf8U, 0xbe171fdfbd0d7984U, 0x3c1773b2bdd141deU,
  0xbd085ff0bdbbe120U, 0xbdaf5cccbdcafb00U, 0x3ce6d442be02099fU, 0xbd5cefc2bddcc6d6U,
  0xbd2327e53de096adU, 0x3e1bd8513cbbfedfU, 0x3c7ef78bbd131838U, 0xbda01fad3cce7c2fU,
  0xbd91236bbc689372U, 0xbe478f513dec4a40U, 0x3c9a692abd0fa78eU, 0xbd83a4cfbc66efe1U,
  0xbdb108ed3d364e22U, 0x3dd687fbbd092ff9U, 0xbcbdd9c8bd940e01U, 0x3d82f9973d8d2a0aU,
  0x3ce27eb7bde8ebc6U, 0xbd8ce6223d1167beU, 0xbd550c043e541b07U, 0x3da4e2abbd95cde9U,
  0x3d4db6073c3bca15U, 0xbda544083d3d6147U, 0x3d104eb43c387c33U, 0xbdf39660bcd69facU,
  0xbdd6d8d03da4b528U, 0xbc1aaccbbc33a74dU, 0xbddbe9243ccf4b6bU, 0x3cfdef773d46b803U,
  0x3c791609bdc8879bU, 0x3c4f292cbd362891U, 0x3dfbfa723d5288fdU, 0x3d24a9143d546980U,
  0x3cdd507ebe7a9f5dU, 0xbda0f03ebdac91d1U, 0x3ce95edb3d974354U, 0xbce4680ebd8db3d3U,
  0x3db6f6953c780cf4U, 0x3d1aac5cbcf73bafU, 0x3a4bb7fe3df535e6U, 0x3db8a56dbcf3e42fU,
  0xbd9bb8af3d8e839fU, 0xbbaa8c07bdb7e1afU, 0xbd986dc23bae1c05U, 0x3cf23b67bdd8cbeeU,
  0xbc643866bc9dc5a1U, 0x3dc7a568bdd70dd3U, 0xbd8f441b3e38b1d2U, 0xbd0014a7bd502d4aU,
  0xbda6ddeebe0cbac8U, 0xbd3b5e493e0b0291U, 0xbdfd899e3e074c3aU, 0x3dbe7af4bdbc0661U,
  0x3cb003a13d8733b9U, 0xbc8cbd88bc1bbab7U, 0xbde842253e0b867dU, 0xbd79afda3e1b524aU,
  0x3d86b2d1bc3cce1cU, 0xbc1c12953dd9ec4dU, 0xbdb729e03deab636U, 0x3d4edb03bce7dfb8U,
  0xbd90a3353d87e044U, 0x3cdcb180bd6b762bU, 0xbda1706e3d9cc5ffU, 0xbdc4c0483cd3814eU,
  0x3c5a0c9cbc77e150U, 0xbdbe9da03d18db10U, 0xbc6250b4bcec5334U, 0xbd5135683c7f5ae9U,
  0x3d621e973c109cf8U, 0x3cc8756dbd824322U, 0x3d57880a3d9c5e4fU, 0x3cee1314bd307e3eU,
  0x3d8d01313e168c3cU, 0x3d22c7b1bcd19976U, 0x3db912da3cd96e1eU, 0xbe00492d3d898fc5U,
  0xbd885997bcaa08daU, 0x3d134c473d3f0f61U, 0x3dbd88ef3d1ac829U, 0x3ce65e3fbc90806bU,
  0xbd9c4ed73cfb752bU, 0x3df7c6e2bc05db16U, 0x3dc0afd9bdbe358dU, 0x3d206c0f3d1909f0U,
  0x3c7df386bbec45bdU, 0xbcc49036bd51bcd7U, 0xbd27c93c3c1ef76aU, 0x3da2afd8bd9ee4b3U,
  0x3df33b253c87a555U, 0xbcdf7d373d5bc6faU, 0x39e4ff2c3c6b7737U, 0xbe09b64ebd825e99U,
  0xbd799ae03d5dc676U, 0x3d083a513d7bcacdU, 0xbd46a4413bb1672bU, 0x3d9b868cbd1c44baU,
  0x3c4c9b2a3e448e8cU, 0x3d0101a0bca5a7b2U, 0x3e0062b1bca827a7U, 0x3c5449b83c64ea91U,
  0xbd056980bc6fa1bfU, 0xbcfe4c6b3dada24aU, 0xbddd3c19bda4bd22U, 0x3d436ef8bd77108bU,
  0xbd73ed733cc1f028U, 0x3df4ab333c9701ffU, 0x3c1b6774bd03e7eeU, 0xbd3c36af3d9870edU,
  0x3dc04afbbc89dffeU, 0x3c74d2c43c8b1e65U, 0x3e23a6af3d49ea20U, 0xbdbb666a3cc4dfebU,
  0x3d2f12123b9d18f5U, 0x3cb9ad0c3d6b1da8U, 0x3da8e20abcc3a65cU, 0x3ccac3d63d7e05a8U,
  0xbae6b2de3d91d440U, 0xbd1c1c0cbbd7cd3fU, 0x3a2724403d8a17e0U, 0x3dd096523c8e74cdU,
  0xbcdfeca2bb6aed49U, 0xbbf84b07bd078b80U, 0x3dc31ab03a912fb5U, 0xbd2018313d9b1bedU,
  0xbd1dc43e3c573254U, 0x3dc76b453d40b17aU, 0x3e00bc34bc0a9f5dU, 0xbb10d4173d27c56cU,
  0x3d63e65d3e0655c9U, 0x3dab0ec23d997d5bU, 0xbd2982753d5399d7U, 0xbac0f0883ce36f02U,
  0xbc9a6b713d1b341bU, 0xba6bd241bd14d546U, 0xbc2d1e3a3d065134U, 0x3da3f7b0bdb43889U,
  0x3dbc811a3e62366fU, 0x3d0effc5bc7fcbd0U, 0x3c83ebc13d8476c8U, 0x3c70c91b3dfb4494U,
  0xbdb08ad7bd7cfdd3U, 0xbdc6ef56bbc8a4a4U, 0x3e86b72a3cda8fb1U, 0x3e09c51abd96fdefU,
  0xbdb22cc63e338ea5U, 0x3e29c1f7bda5c436U, 0x3e2b77fabdf64af7U, 0xbd3bc07ebcd8d7d5U,
  0x3e3000c5bd89e06eU, 0xbaca691fbd80eabcU, 0x3dc9cde73cfb675dU, 0x3db807e33ce6f40bU,
  0x3dd76e67bd578f17U, 0xbd86c5033c9f7fefU, 0xbc01a1353d84238cU, 0xbdecf7b8bc6fe3a1U,
  0xbd871c483c5bb4e9U, 0xbd5b88a4bd2f5ed5U, 0xbc2ff8febd490ec7U, 0x3df9ae493d11604fU,
  0x3b392efa3e4c3e45U, 0xbd6dcdc33da3a4e3U, 0x3d3ee81cbdb298c6U, 0xbd2621733d4ac2f7U,
  0xbe06314cbcb1157dU, 0x3da044bbbdbc9749U, 0x3ddabcaabd923403U, 0xbd0660a43d7490c4U,
  0xbde6d2753dee465dU, 0x39f816ac3d9b621aU, 0x3dea0cb33e10b6e0U, 0xbd3bc96b3e021d04U,
  0x3c760e883c8a75b0U, 0xbd80b67b3db3a830U, 0x3e82547e3cb02684U, 0x3db8c650bde378b7U,
  0xbcdbdf2c3e7fc4f0U, 0xbd80be7bbd9d4326U, 0x3d707f09be0b3d56U, 0xbd91c0a93d32b202U,
  0xbdc2296dbdcca580U, 0xbdc1ebd53d902b40U, 0x3de70a5c3d330739U, 0xbce359cb3d331c97U,
  0x3df37ad9bc274440U, 0xbd80d4d5be225e3fU, 0xbdbd06c2bdcb26d1U, 0xbcd8d5e5bd9a4e2fU,
  0xbe0780833dc18071U, 0x3dcec1c03d87ba27U, 0x3dceaf053c76d83dU, 0x3cebca85bd294a00U,
  0xbdb0ca433e36df9eU, 0x3dc4f53b3d921dfaU, 0x3d9e3ae43b1bd45bU, 0x3dd83a0f3d857e49U,
  0x3d9b1f9dbbde05a5U, 0x3dcd8852bcc5ca3cU, 0xbd7c7b89bde8585bU, 0x3db0b7fa3dfccc57U,
  0xbd9bbf40be23d8ffU, 0xbe34e9b43cbfa2bcU, 0x3cf9f8173d9ede68U, 0x3cd08717bda366c1U,
  0x3cb36907baaca7b0U, 0x3cf80e6e3db0b230U, 0xbe35f293bb03a6a4U, 0x3cb020d5bce9f2deU,
  0x3d9cad12bdd57277U, 0xbd77e1593e0cbf2bU, 0xbcde4fc03e2d9490U, 0x3c8d62bb3dc0613bU,
  0xbde04d6fbbb36b58U, 0x3d03e7d6bc4709a8U, 0x3cef124b3dc8187dU, 0xbd1d9006bcdfaa8fU,
  0x3cc07aa0bcd5c6c6U, 0x3d855f9f3da39d96U, 0x3d5c162fbd265356U, 0x3e36a3a83d9d832eU,
  0x3d2b01f2bc3a1295U, 0x3c2776aabdf662acU, 0x3cdb8dac3d416e7eU, 0xbcda1aa73d573e4bU,
  0x3d8ebe9fbe53934fU, 0xbbff85cbbc72362cU, 0x3d103acd3dd90577U, 0x3c9a44153c32b58cU,
  0xbd9d54f83d8c1ae3U, 0xbc89a484bd3a00cfU, 0xbddac0adbd6859deU, 0xbca6e55ebc929600U,
  0x3ca46bf13d87a01fU, 0x3d492b0c3d851776U, 0x3de8629abd19447fU, 0x3c87ddd7bd7a4130U,
  0xbc089fb83d63013fU, 0x3dde170f3e055a46U, 0xbde3cd81bdbf9b27U, 0xbdc582aebdc4bb33U,
  0xbd24abcfbca23dc3U, 0x3c009bbd3d0a72e3U, 0xbdd700c43d5febdeU, 0xbc959db7bc4a35caU,
  0xbd9a55c5bdb054feU, 0x3c8e905ebd940d25U, 0x3c2bf5b83d6dcca2U, 0xbd15dc8fbc1a0e83U,
  0xbe0b2f663d8648c4U, 0x3dc816b1bd391343U, 0xbd70e3afbc244018U, 0x3d95f7183d4f0f6eU,
  0xbc70b108bdc21862U, 0xbd9b1860bd2dcd1aU, 0xbd232ddc3cda688aU, 0x3c8bba7d3c61434eU,
  0xbcd71f7cbd1f2faaU, 0x3d179c343d418dc1U, 0x3d1a482a3d5b1ba6U, 0x3ce0649e3db4fe2fU,
  0x3d8974f33dea1d9dU, 0xbc9851a7baaf5feaU, 0xbdcc2b95bd9012e9U, 0xbdcc8a043db60a90U,
  0x3d500ec13cdf5b3fU, 0x3da54543be0da5d9U, 0x3cb5e3f9bda31a83U, 0x3e79ff443e0ce474U,
  0x3d06f331bc8c046eU, 0xbd90d99ebab71930U, 0xbd4e3f60bd84fae0U, 0xbd320ffbbc515d45U,
  0x3e120ec13e0ced84U, 0x3cf17e9f3d80ad23U, 0x3d605dd3bdb7d222U, 0x3cd4dbdebd5eddc5U,
  0xbd1caf9c3d903195U, 0x3bc43c71bd86dc2dU, 0x3da6e9c03ce9a88bU, 0xbcc881c73c541fcdU,
  0xbd410a333b37b496U, 0xbd3c0ca63d0d8f24U, 0x3e0973c03dc76403U, 0x3d3979353cfc60fdU,
  0x3d8b099abcd36a88U, 0xbd071fbabacc241fU, 0x3d4dbb0ebcf9d1bfU, 0xbc983a633af92213U,
  0x3db96e543dff82e2U, 0x3e4117503e2487eeU, 0xbd5b8885bb7a38e2U, 0xbc9dcf7b3d72606bU,
  0x3cd4ed45bd1ba636U, 0xbcd92187bdae0c4fU, 0x3e0a4c4d3e01ad27U, 0xbc8c5fab3d2d270dU,
  0x3e19dd683d59271cU, 0xbdaafd4c3d74c18fU, 0x3d0117213d5c0fb4U, 0x3d110edfbdb5f30bU,
  0xbd9e4fdd3dbaaa4bU, 0xbd86359bbc936f32U, 0x3c87545c3c8900f3U, 0xbc76dc29bb9ddfaaU,
  0x3c35bbe83e2d7e59U, 0xbd23a756bd95475dU, 0x3dcab830bb3e8c15U, 0xbbdca7053b9e8a6aU,
  0x3e06417ebd5ca833U, 0xbb58c12abd094835U, 0xbcdf203a3cce368aU, 0xbd30c497bd09e66aU,
  0xbca66e2dbd91355dU, 0xbd359e6dbd02ce31U, 0xbddbc1643d1b6b01U, 0xbd545493bd4b3fc1U,
  0xbc843748bd89f0a8U, 0xbd2a35723d13ac1bU, 0xbd8cd9b33dce0187U, 0x3cbeb4e0bd344d75U,
  0xbd87dc8e3db64e33U, 0xbd834db4bb3dd1fdU, 0x3ca997c8bd915225U, 0xbb729396bc5af5ffU,
  0xbb5506243d81fd5fU, 0x3d44825b3dd43e79U, 0xbe0886e5bd79b0a6U, 0xbcafe69e3da86d0bU,
  0xbdcdc2cb3d10e829U, 0xbcfb32533da26029U, 0xbd9446e33d57c924U, 0x3d3df69cbcc624ecU,
  0x3d95148dbd08a66cU, 0x3db9874c3d655356U, 0xbdf925473c766196U, 0x3d8cc4163de016c3U,
  0x3dd1c0be3d8ff871U, 0x3d4b22783ce977bcU, 0xbd21f1c43ddd425eU, 0x3d5e239e3ca1a9c6U,
  0xbde540e43cde32e2U, 0xbd8079563d6d4bf1U, 0xbcdfa00d3d1169adU, 0xbd7e9bc23dd7a7ccU,
  0xbded00253d684e70U, 0x3d7e33153d9deb25U, 0x3dc841a53bfa1576U, 0x3dbde9373e03b294U,
  0x3e1cf495bd77651eU, 0x3d2bca613c8528adU, 0x3dc02ce1bc95b80aU, 0xbd40eac83cd01d60U,
  0xbb2bcc6abe05ee50U, 0x3c39d06a3b738365U, 0xbde0174a3d79c130U, 0x3c9e74f63d9bb7ddU,
  0x3d0145db3ddcb660U, 0xbd1edb07bd990240U, 0x3d34a4193e093170U, 0xbdc269653da12628U,
  0x3dc88f5b3d3b5b75U, 0xbc5e64ba3cdd58faU, 0x3ce9ea0ebcd8d669U, 0x3e06730ebe22ee5dU,
  0x3b565d1f3de7f41aU, 0xbde69a123d87ee41U, 0x3bbba76abdc7a17eU, 0x3e0e5af2bcc7930eU,
  0x3d8ba1b6bc6cdca1U, 0x3dc9bccdbc203ac8U, 0x3cb5ac1c3d9f3219U, 0x3d1c545abd79eda3U,
  0x3d350cdbba249dd4U, 0x3e06a262bbed87daU, 0xbce9778cbd2fc863U, 0xbdf55328bd567cc3U,
  0xbd3b073e3da5bbbbU, 0x3de5d343bce61234U, 0xbcd4aba8bc74b739U, 0x3d3361abbce772e7U,
  0x3df0c6fcbd6d41d3U, 0xbde3eeaabd812dd4U, 0xbe22841abcdc8b26U, 0xbce9a104bcbd95b6U,
  0x3dc3b573bd2f8715U, 0x3c287b65bcaf9eb7U, 0x3d883a8d3dc8204bU, 0x3d834e093da5633fU,
  0x3c0bfd113e172df3U, 0xbe03a3823e4aeb70U, 0x3caa1c96bdda5ecbU, 0x3d0a188a3db81ac6U,
  0xbd94ba08be3c1661U, 0x3e80c35d3e7041f4U, 0x3d82aed43cef5810U, 0xbd773805bdf2e221U,
  0x3e097f7c3d7d4ea5U, 0xbdd6560d3e830e48U, 0x3d8f41533ab64b2cU, 0x3dca3982be0adef2U,
  0xbd528cd3bd821d22U, 0x3de5f6db3e278e5dU, 0xbdbd3c043e82ee17U, 0x3e08e83c3e696b28U,
  0xbd3277f23e9d8ca1U, 0xbd86f4303e8f731cU, 0x3d89558ebed1d0c6U, 0x3c999c693e869393U,
  0xbebb8b9bbec7efefU, 0x3eb552a43e200fd0U, 0x3e52a48abdf35612U, 0x3cf9dd09be759ca4U,
  0x3e825121be1f7e9cU, 0xbe41da883ecf1bdaU, 0x3d9a74a5bda80392U, 0x3dd3bb98bd324561U,
  0xbe0556673b8de805U, 0x3e1665e83e202ab5U, 0x3d6ed80e3f02465eU, 0x3e96c9e83edcb50bU,
  0xbeed99273e68aa3bU, 0x3ebaaa30bc383418U, 0x3e12d3d3bead5ca2U, 0x3e4b7da53ea0d663U,
  0x3caa79403e5f30beU, 0xbd316663bf0a9598U, 0x3eda5302be0b1b75U, 0x3e9efbd03e90acb8U,
  0x3e92ab99bef814adU, 0x3e5f897b3e602a04U, 0x3e924d643dfbbd13U, 0xbdd190353e91b795U,
  0xbf040c8a3d93bb69U, 0xbeb2ea153dfcd3b4U, 0x3e28811cbda28359U, 0x3e1ebeed3e1a8831U,
  0x3e15121b3ef3fcc4U, 0xbeed8c92bf0fc405U, 0x3d6826183ee01e56U, 0xbe0440ebbe3df714U,
  0x3efe86c3bcc89b84U, 0x3edca521bdfc0c4eU, 0xbe1ba3903e8240aaU, 0xbea137d0be843579U,
  0x3cd9ca6ebe5bd113U, 0x3d6b47d1be307fb3U, 0xbd7592cd3eec2e50U, 0x3c72e171bdf21459U,
  0xbe0e4488bf0cdfaaU, 0x3e8720183eb84e2bU, 0x3beff518be640165U, 0xbd37567c3eed9fe2U,
  0x3ef6d1eabeb2a5f6U, 0x3e98f9983de60578U, 0xbf0c46473ec0ff7aU, 0xbdf965393dc661d1U,
  0xbe93df26be4bd7cbU, 0xbe9220153e3cc915U, 0xbec3989dbe47f80dU, 0x3eb731513e0cd544U,
  0xbf093b223d776da9U, 0xbef29c8a3e884559U, 0x3c3867acbe802c9fU, 0x3e8d6bb83ea92663U,
  0x3e5913173e585ed4U, 0xbe5037e1be9a62dfU, 0xbdcc8af63e4fcc3fU, 0xbea861213e04590eU,
  0xbec14042bdd0b9abU, 0x3ec6bbe6bea67b6fU, 0x3e90d4e63e3163c4U, 0xbe6c53bb3e1e7629U,
  0x3e3136293eee3879U, 0xbeeadc5cbf03bd40U, 0xbe6dcf6cbded83c8U, 0xbe58391ebe8a0b46U,
  0xbed70de8be6cd683U, 0x3ebdc528bef91219U, 0xbf02f8d0bd4db6c2U, 0xbe40ae653f011e78U,
  0x3e845b8a3ecce699U, 0x3e00e6bfbefcc786U, 0x3efffbf6be04714dU, 0x3df54a68bf046467U,
  0xbddf9c7f3ea8e60cU, 0xbdab75473c6f2782U, 0xbdb7621bU,
};


ai_handle g_networkmf_weights_table[1 + 2] = {
  AI_HANDLE_PTR(AI_MAGIC_MARKER),
  AI_HANDLE_PTR(s_networkmf_weights_array_u64),
  AI_HANDLE_PTR(AI_MAGIC_MARKER),
};

